node {
  name: "global_step/Initializer/zeros"
  op: "Const"
  attr {
    key: "_class"
    value {
      list {
        s: "loc:@global_step"
      }
    }
  }
  attr {
    key: "_output_shapes"
    value {
      list {
        shape {
        }
      }
    }
  }
  attr {
    key: "dtype"
    value {
      type: DT_INT64
    }
  }
  attr {
    key: "value"
    value {
      tensor {
        dtype: DT_INT64
        tensor_shape {
        }
        int64_val: 0
      }
    }
  }
}
node {
  name: "global_step"
  op: "VariableV2"
  attr {
    key: "_class"
    value {
      list {
        s: "loc:@global_step"
      }
    }
  }
  attr {
    key: "_output_shapes"
    value {
      list {
        shape {
        }
      }
    }
  }
  attr {
    key: "container"
    value {
      s: ""
    }
  }
  attr {
    key: "dtype"
    value {
      type: DT_INT64
    }
  }
  attr {
    key: "shape"
    value {
      shape {
      }
    }
  }
  attr {
    key: "shared_name"
    value {
      s: ""
    }
  }
}
node {
  name: "global_step/Assign"
  op: "Assign"
  input: "global_step"
  input: "global_step/Initializer/zeros"
  attr {
    key: "T"
    value {
      type: DT_INT64
    }
  }
  attr {
    key: "_class"
    value {
      list {
        s: "loc:@global_step"
      }
    }
  }
  attr {
    key: "_output_shapes"
    value {
      list {
        shape {
        }
      }
    }
  }
  attr {
    key: "use_locking"
    value {
      b: true
    }
  }
  attr {
    key: "validate_shape"
    value {
      b: true
    }
  }
}
node {
  name: "global_step/read"
  op: "Identity"
  input: "global_step"
  attr {
    key: "T"
    value {
      type: DT_INT64
    }
  }
  attr {
    key: "_class"
    value {
      list {
        s: "loc:@global_step"
      }
    }
  }
  attr {
    key: "_output_shapes"
    value {
      list {
        shape {
        }
      }
    }
  }
}
node {
  name: "Const"
  op: "Const"
  attr {
    key: "_output_shapes"
    value {
      list {
        shape {
          dim {
            size: 17623
          }
          dim {
            size: 5
          }
        }
      }
    }
  }
  attr {
    key: "dtype"
    value {
      type: DT_DOUBLE
    }
  }
  attr {
    key: "value"
    value {
      tensor {
        dtype: DT_DOUBLE
        tensor_shape {
          dim {
            size: 17623
          }
          dim {
            size: 5
          }
        }
        tensor_content: "\342\342\256\317-\035Z@)\323\315\232P~\204\277\300eJ-iy\325\277\032zm\034\201\341\004\300\017\277\027\022\215\205\340\277;Br93\013,@\2123L\237\354\321\204\277\300eJ-iy\325\2775\2122\344\251b\221\277\377\242\\\267(\352\275\277\266\022\342\215\017\0237@\234\373\317pA\246\204\277\300eJ-iy\325\277Cs\027\006\344t\007\300vu\305\361\nU\005\300\217\364\256\337\275\255.@\036S\227\203~\317\204\277~\233\240\253gV\256?7\332\014\313\021\257\322?\214\300\367\355\261\225\352?\'J\203C\363\3366@\310\331\013\276$\306\204\277PR\3267\234\256\301\277\222\370l\235\255\302\006\300R\177\262\0140:\364\277\277\215`\335\007C(@<\227\365\014q\221\204\277~\233\240\253gV\256?\006:\337L\303\343\371\277\330\310\026\267\327%\360\277\325\341i\227W\314&@w\314]\224\204\256\204\277\300eJ-iy\325\277Sv\030\004\213\262\003\300\304\335\030\361\334\354\312?\321W\036\037\022\216!@LLQVI\317\204\277\300eJ-iy\325\277&y\331H\272\325\341?\247p$,\375\231\344?\351M\262\030\371\301&@\305\226n\232\321<\204\277PR\3267\234\256\301\277\254\343\336\242\213$\373\277\227\004\271\332\023\003\360?\377\014\323\232\3206\'@a\211\275\323!\313\204\277\300eJ-iy\325\277\252^\352&\211\021\275?Y\206\010\254\317\304\205?\217\256\322\261>\317 @(L\241Dp\321\204\277\300eJ-iy\325\277\026v\330J\023\230\345?VLgH\302\341\341?\375\316)0\\C\"@\036\304Ld\207\325\203\277/\343\230#\323Q\013@\271\331\3039\001\273\357\2779M3\242\211s\365?\207>}8T\331\035@\356\252\361\347\020\233\203\277\300eJ-iy\325\277\271\331\3039\001\273\357\277\3252QON\345\360\277\032:\247\032\314E @\004\204x\003\351\321\204\277\300eJ-iy\325\277\035=Bu\r\001\007\300\344\331\337\021\254\334\006\300\245`\314\257~a#@\244\341(\224\344\321\204\277~\233\240\253gV\256?\260\345\303#\337\327\000\300\246\376\202\242\312]\373\277\304~\377f\262\305$@\373y\034\211\354\321\204\277PR\3267\234\256\301\277\220\337\301\'\221\\\010\300\377NZ\232\315\013\006\300rH\361~\207G\036@\347\253%\270\352\321\204\277PR\3267\234\256\301\277\302\002\310\277\257F\340\277]=@b\253\215\345?fpMy\356\002\"@\244\222\311\002!\261\203\277\347\202x\235\234)\353??\3426n\355A\361\277H\370\023\213\275M\361\277E\035b\242\301\214\037@a\372\313\220@\352\202\277\232\020\024\023U\275\360?\302\346A\313\325A\010\300\310d\326D\3258\376\277\223D\231h\243\313$@)\030\315$yW\201\277~\233\240\253gV\256?7\242l\363u\003\010\300Pg\232xK7\360?a\332\377\347\307v\026@\"\274\316-\333\234\204\277\007P\323\006\350l\320?{\034\307O\033\236\343\2771%k\264\227`\343\277T\340\2755I\364&@)\251\034!\n\315\204\277~\233\240\253gV\256?u\376.\340\203#\341?\3752\360\337\022&\334?\332O\377\373H\270&@\375s\217u\336\321\204\277\300eJ-iy\325\277|o\302\355\355E\006\300\347o\245y5\035\006\300^\035/\250\357A\030@\310\3131m5\312\204\277~\233\240\253gV\256?OD\302\030R\346\006\300\314\372*\361\023\356\006\300\303\204\330@\203$\035@\200q\344\275\274z\204\277\233\344\310\024\217\330\344?\312\3205)\2759\365\277\211\377N\374\221\357\356\277\003\313\014\270\336\376\023@\373N\007M\014\313\204\277PR\3267\234\256\301\277A\305]n\240\360\263\277!\232(#\212e\304\277YW\230\316|m!@\r>\264{\'\224\203\277~\233\240\253gV\256?\1772\227Fze\010\300\310d\326D\3258\376\277Y\310;\006\265\366\024@ed\232\354v\315\204\277\237\2142\030\003\017\335?\330\272\213\261G\021\363\277\376\304/\301kA\362\277\232\357\272p\347\002\026@a?\366*\353\321\204\277\300eJ-iy\325\277\330\363\203\261\360\207\342?\307H\373\316\317\307\335?\307y\010\220Uj\023@i\257\027,K\243\204\277PR\3267\234\256\301\277\362u\214L@Z\360\277#\315T\025r^\346\277\261F\275\256\242\212\013@\002}\302\306\271\321\204\277PR\3267\234\256\301\2775\2122\344\251b\221\277y\224\252\302\252\323\274\277|\213T\214\235\260\003@.r\2469$\222\204\277w\367\247|:\216\025@\316gj\347JI\250\277\335Z\031=@\370\342?\r\034H\003\036\026\025@hI}\346\277n\201\277\300eJ-iy\325\277\261:o\022\314\025\355\277\315\263\3735-\214\363?CE\034\221\272\272\033@o\024t\005\344\321\204\277\300eJ-iy\325\277\357g\030\275\001\350\003\3006\0042_U\n\004\300>\210\266T5\365\034@\301~\255&\315;\204\277\300eJ-iy\325\277\241\214\354\010\250S\010\300f\310\241\305>\350\364\277te\237\212\355^\037@\217VI \367\320\204\277\300eJ-iy\325\277OD\302\030R\346\006\300\314\372*\361\023\356\006\300\326\201#\212:\010\025@\365/%tU\250\204\277\007P\323\006\350l\320?\031\320C9\021(\001\300\346\337t{\032R\001\300\\\274Y\344O\232\031@\313^\331\025n\321\204\277\300eJ-iy\325\277\245\276B\364\340\037\005\300\032\304\324\"\357:\005\300\031\263\237\316N9\030@9XVk\037\371T\277\233\344\310\024\217\330\344?\272\236\033\351=\256\346\277.D$kQ\333\352?g\013W\035\304E\022@=\265uo&\321\204\277\300eJ-iy\325\277\312\232\261\263S\202\271\277\200\333I\360\300J\311\277\010\346@\177\024N\033@\353\031\261B\331\321\204\277~\233\240\253gV\256?\254]\227\033\026\305\007\300\311de\211\212\255\007\3007\220\365nz\274\"@\221\231z\340\352\321\204\277\300eJ-iy\325\277\210@m\000\\\267\005\300\321[\323\014\342\316\005\300\220\000\0253|\027\017@x\343p\000J\247\204\277\300eJ-iy\325\277~+\223\007g\333\324\277\230\252/\345\305\311\332\277\000\301#\342\2709\016@sC\220\210\232\366}\277\300eJ-iy\325\277\357^\221\'>\212\333\277>}\201S\275b\340\277\312\205\275\253}\330\014@\227\303\330\202\345\267|\277\233\344\310\024\217\330\344?\271@\351d\215\022\322\277G\301$\267\264\346\322\277N\321y\262c\002\024@w\244NL\267\321\204\277\300eJ-iy\325\277g\254\307\025x\207\341\277\347\361\206\352ET\344\277\277\330\206\344\0054\014@\2621\"|\350\321\204\277~\233\240\253gV\256?9\353\210\323w\202\375\277\231\246l\003\245[\376\277\035\033\257\245`\346\031@I \001\003t\321\204\277PR\3267\234\256\301\277HO\227\324\214\372\007\300\261\205\260h\362\276\007\300\241\223\240\243\365\246\023@\031$\016\374\311\312\204\277PR\3267\234\256\301\277\232V\006i\233\274\273\277r\276\345\006\305\035\307\277\222\014^\324\254\307\030@m\036\364m\336\321\204\277\300eJ-iy\325\277n\265\335\317H\207\377\277\216\217,\310\314\030\000\300\206X#\267\276\374\014@(\360E\001\177\321\204\277~\233\240\253gV\256?\274\255\347\240\211\353\327\277\212\215\313\373\311\234\330\277\002\273\341\306X\371\006@\226\261\341\315\224&\203\277\300eJ-iy\325\277\n\245-8\245&\346?\232S\300B\001m\342?\356\374\005\247\263\n\t@\233X\353f,\234\204\277\300\337k\327\333\345\363?R\351`,\352j\327?\264\310:\313\"\234\341?\0241\375(\202\362\007@\232%\276#\006\262\204\277\300eJ-iy\325\277\017\236\213#5|\363\277\304DuH\237\242\364\277\236\2312\365v\243\010@2}\025dL\321\204\277\300eJ-iy\325\277V\204\214\223\311$\360\277\257\250\273E\202\034\365?5\240\371\237\016}\017@\023X\0165\355\321\204\277\300eJ-iy\325\277\213M\035Vu\000\310?\276\007T5\3676\265?\266\373\233\321\356\327\020@3\177\251\2322\302\204\277PR\3267\234\256\301\277\\\n6E\342c\364\277\013\342\223\252gn\364\2778\272\320\340H\025\025@\307\377\247w\315\316\204\277\300eJ-iy\325\277a`n\214\025\212\001\300\272\202$\021\003\341\366\277\274\311\016\002n\246\023@\353\026@+2\353\203\277\300eJ-iy\325\277n\265\335\317H\207\377\277\246n\341\350d\007\000\300\372\002%\355\322`\034@\220\351\251\037\350\321\204\277~\233\240\253gV\256?0\003\030\314@^\005\300G\267[\260\332w\005\300**\211/0\326\023@\017}\346\200i\321\204\277\300eJ-iy\325\277`\361\354\371h\335\006\300Xj\205\001`\345\006\300\232\303*\366:=\r@\333\353w#\213\271\204\277\007P\323\006\350l\320?\221\324\212A\263h\366\277\202I(\230\322\030\346\277\250*\360.\014(\021@\027]\305\230\345\321\204\277\300eJ-iy\325\277v%\031\265\245\336\357\277\330\310\026\267\327%\360\277\262[O\244\"\231\022@\255\014k\376lq\201\277\232\020\024\023U\275\360?\217\273\337\313\226\002\370\277\310\237\210\372\376\r\371\277\334l\224\374@\252\006@\343\204\226\366qJ\202\277\014~\033`\3516\372?`<\2140\0330\361\277`\250\"@\236h\350\277\264\262]K\334\372\006@/P\273\245\332\264\203\277\300eJ-iy\325\277\331\337\3055O6\350\277kwF\331\256\246\272\277k\010\234\226n\310\030@t\213\266`\353\273\204\277\233\344\310\024\217\330\344?\323\223l\254\3548\010\300\234q\336\373\236p\007\300\316\266\336#~\310\020@\311?;\020\337\321\204\277\300eJ-iy\325\277\032zm\034\201\341\004\300\354\320M\225\003\376\004\300\207\243N\305n\263\025@Fc\204\242\036\320\204\277\233\344\310\024\217\330\344?\364\355\301n\032\'\010\300\377NZ\232\315\013\006\300\302%\353,\355d\020@\355>\371\261\326\321\204\277PR\3267\234\256\301\277\014\220\027\224\366\t\007\300\3611\366\260\321\336\003\300\3246\2058\035@\007@\013\312\003\365\037:n\277\347\202x\235\234)\353?^\272\013?X\334\326?3\223I\\\251.\320?\202t\275\206<M\020@\375\213\220{\245\320\204\277PR\3267\234\256\301\277;\324\302\336\256\317\004\300zLC4wk\360\277\3348\272\356\314\236\021@\223+\010?N\321\204\277\300eJ-iy\325\277>\355mT\3135\003\300\365\307\273\030[\037\003\300\272&y=\255%\005@\312\354\251\315Y\265\204\277\300eJ-iy\325\277\027=\340Jj!\366\277VLgH\302\341\341?\360G\211+\237\037\005@\331\254r\"\305\266\204\277~\233\240\253gV\256?\210\226C\035\354\375\001\300\233\254\220\261\310E\002\300mU\361\325\305\003\002@\232\265\217r\351\321\204\277\300eJ-iy\325\277?\251>nD\313\321\277\245\002F\204\353\313\327\277Rm\205P):\006@\003\302\356*\344\321\204\277\300eJ-iy\325\277\221\324\212A\263h\366\277\346\252\310\352\251}\367\2779r\375\225\265\016\014@\t\310i\235\350\321\204\277\300eJ-iy\325\277\341Cr\014\301\316\341\277\210u\263g\345\231\344\277\226\255\256\275,\211\t@A\273\016o\377\312\204\277\347\202x\235\234)\353?\371\345\3071\235\261\340\2778Q\366\203\252\341\341\277\273\261\030\205/*\026@6\215\370\002+\336\203\277~\233\240\253gV\256?r\r\231m,\201\001\300\3145\335\246=\303\001\3004\322=%|\276\010@\271&\265\237d\316\204\277\300eJ-iy\325\277,\227q\270QP\344\2778\026D\316\200\014\347\277\231\037\022n\267j\020@\320?\212-\330\307\204\277\300eJ-iy\325\277Z\361\212\317\305\375\365\277t\345\005\257:\025\367\277R\316\243^\334\321\010@\337\376%K4\321\204\277\300eJ-iy\325\277\002\330\027\367\244\376\005\300\377NZ\232\315\013\006\300d\2354\374?k\027@DX\314\232\210\316\204\277PR\3267\234\256\301\277n\205lecn\010\300\321[\323\014\342\316\005\300T\331@\272\224]\023@r\033\r\320\253\321\204\277\300eJ-iy\325\277\000\025C\236\030\337\003\300\302s\214o\241\001\004\300\230{V4\003\350\023@\2557\231E\020\321\204\277\234\373l\301\217\275\t@,\306\212\372)\236\366\277\210u\263g\345\231\344\277m\005\262>+8\021@\345Q(\000\323\350\202\277\300eJ-iy\325\277\000\277l\201\210\230\007\300\020\002\204\353Ry\007\300\273\332\336o\366|\n@\360\363V\323\226,\001@\300eJ-iy\325\277czq*?\273\344\277\344\020@\241\377\316\353?OW\333\2329I\020@\036I\216\326\201\366\200\277\014~\033`\3516\372?\2619\027\352\276J\010\300\310d\326D\3258\376\277t\322\310_S\236\002@\373\377\360k\r.\201\277PR\3267\234\256\301\277\273Z\200\361\236\345\357?\265R\326_\317\361\353?\177\355\205_\224\300\023@\320\362\001<\n\270\204\277\300eJ-iy\325\277\212Y\030vx\035\004\300\360f\023\375\214>\004\300`\225\347#\212\355\006@\002k\177\270:\317\204\277~\233\240\253gV\256?2L4\254B\335\372\277\003\177\031\007L\206\327\277\257I\232\3567\207\000@V\270\212\323G}\203\277~\233\240\253gV\256?y25\034\327\205\367\277x\262\272\352\314\274\344?\355J\"\371\264\035\003@Y\211\206wN\233\204\277\300eJ-iy\325\277 \364\033\256\226\003\315?\325\240\021n\365\311\332?\256*\316\230d!\372?\013\325\343\301\022\271\204\277PR\3267\234\256\301\277`\326*?\264\001\311\277\245=\3709\025\241\322\277\206\000\333\271\355\261\002@\037[\376Z\363\261\204\277PR\3267\234\256\301\277>\355mT\3135\003\300\226K\350\225\372d\003\300\341T\232\373z\022\030@&J2,\261\320\204\277\300eJ-iy\325\277\032zm\034\201\341\004\300\354\320M\225\003\376\004\300\233\324\010\031G3\003@\032?R\334\223E\204\277\237\2142\030\003\017\335?\254\263m8\246\013\004\300\007F\310\035%-\004\300\226X\331P\252\241\020@\024\346i\343\025\315\204\277\007P\323\006\350l\320?F\201\213\225\"\347\363\277DbN#4\r\362\277\330\347\336Y\343\207\t@\300\355\315\311_\304\204\277PR\3267\234\256\301\277\004\361\302l\301d\004\300\221\352?z,\204\004\300&\233\215h\335\236\020@\253>\270\211y@\204\277\234\373l\301\217\275\t@\261\217\355\006O\221\004\300b,\3268\374\246\004\300\317\324\312,\033]\375?$\211\350W\206K\204\277PR\3267\234\256\301\277\345\260pH\275\247\347\277\315\224$\366\010(\331\277\024\002\226\343\251\255\003@\316\260\212\357\231TF\277\007P\323\006\350l\320?(e\033\315\030\204\347\277*\276-/[\n\352\277\350\246\321\302S\n\006@\275!\336?\203V}\277\237\2142\030\003\017\335?Sp\005\371\006\024\277\277\321\377\006\324\373\002\314\277\373\\t\016\377\332\377?\240\025\342\352W\267\204\277\300eJ-iy\325\2779\021\356\205\"\260\002\300;e\332z#\353\002\300-:BT\355\030\014@p\205\215=\022L\204\277\300eJ-iy\325\277\260\345\303#\337\327\000\300,}\223\335\342\035\001\300\213\216g\3019\367\023@2 *n\342\302\204\277PR\3267\234\256\301\277M+\027\2435\200\010\300\321[\323\014\342\316\005\300\273\363\363u\032/\014@\340l\225\267\263\004\270?/\343\230#\323Q\013@n\206\304\215p9\355\277\210u\263g\345\231\344\277\302Cs\373\254\335\002@edU\t\032\226\203\277\007P\323\006\350l\320?\377j\031\273\250%\000\300\316\220a\024\350\271\374\277+\377[\260\350D\006@\343\337\312\303\235\304\204\277\300eJ-iy\325\277\203\272\303NCx\001\300X\2457\267\211\272\001\300{Bf<\254\217\367?\365\316\"\311\330\320\204\277\300eJ-iy\325\277\304\252nLo,\357\277>\314j2@\343\357\277O\235\243K\017\213\364?\310\206\252\231\333\307\204\277\300eJ-iy\325\277r\270\032y\251\005\352\277\252\240TT\306\237\354\277.\343:\231A\203\001@m\256\215P\214\321\204\277\300eJ-iy\325\277[M\r\003\\\003\321?\234\206\3544\351e\304?\231\222A,\030\216\t@\335\200\223t\373r\204\277PR\3267\234\256\301\277\025\236\355M\330[\004\300\341\374\352\356;:\364?*:w\232D\251\023@\354\241\256\336\016\273\204\277PR\3267\234\256\301\277&K\030/\357R\004\300\223\265\".q$\004\300b\275>OJN\t@\014\216\210\2040\321\204\277\300eJ-iy\325\277\275\n\302\374,\274\007\300BV\263\224\014\227\006\3001\017\226\315\226\270\002@\351#\035\000\231\272\204\277\300eJ-iy\325\277\025$5\325M\273\367\277M\226\"[\230!\366?\373\201\"\354t\371\370?D\327\025=\037\314\204\277,\216et\373C\000@\245i\304\377]\244\355\277\360\247\313\327o\024\360\277n\304\235\203\202\203\000@\210\321\376I\337\321\204\277\300eJ-iy\325\277\371\024\341su\377\362\277i^g-\310(\364\277\200^h\002\232\202\371?\022=\275y\354\321\204\277\300eJ-iy\325\277\030\361.$X\300\236\277\220Su\355^\223\223\277\275\207N\001M\315\003@\372\365O>\021\317\204\277PR\3267\234\256\301\277i\377\302\263J/\004\300[\352u\030\235\265\326?\212h\005^1\022\026@F\325\245\355\353\321\204\277\300eJ-iy\325\277z\254\355\224a&\004\300|\326m\r\3315\004\300_\030\300\206s\017\375?7&\234\235e\221\203\277~\233\240\253gV\256?8\2275\r\230\017\366\277\272\202$\021\003\341\366\277\214\266\214\326\035\r\364?\221\255\211\262{J\204\277\237\2142\030\003\017\335?c\034?\246\216\037\320\277M\226\"[\230!\366?q\362\355\177\2174\006@\007=d2~g\204\277\300eJ-iy\325\277\342r\213N\231\034\364\277\360l\031\"F?\365\277\021g\241\261G\202\364?\026\313{\3116\321\204\277~\233\240\253gV\256?\264\336\265\375V\317\330?\271j\014}\036\336\362?QT?\2105\023\376?\205\354Wkxf\204\277\232\020\024\023U\275\360?\230\254\327h\221\204\350?\223\261\320\007\233A\356?\326\324\253\333a\216\372?\243=\314\267\221\321\204\277~\233\240\253gV\256?\356C6a\007\216\363\277\255e\300\'\007\264\364\277@$|\330b\202\360?\037.\224 \335%\200\277\014~\033`\3516\372?\177}6},\270\362\277\3252QON\345\360\277\313\2459\356\350\366\367?\020+(fW\215 @\300eJ-iy\325\277zWo\240\336\252\354\277!\25107\033Z\360?\344\231\315\257\202\307\r@\010\244\343\314\264`\202\277PR\3267\234\256\301\277]^\211\013\302\326\373\277\346o\0265\200\250\374\277*D\242\361\007\013\010@\010\206Qa\253!\201\277U\262\360\347Yz\016@\005\233\354O1\036\010\300)\262!\345\350\010\370\277\334Br\002#\357\000@\325\224L\225\005\321\204\277\300eJ-iy\325\277\240\0224\220\035\263\373\277\376N\313U\030\227\374\277d\212\245\203\373\367\023@A \020\017\303\300\204\277\233\344\310\024\217\330\344?\nwl\036\332\243\010\300\321[\323\014\342\316\005\300\025\004\213\253a)\010@\026x\2026\002\255\204\277\300eJ-iy\325\277+\'\230\375\227\330\004\300x@\250\245O\365\004\300\203n^\255\310\367\376?f3A:\353\321\204\277\300eJ-iy\325\277{K\340\221\363\353\365\277\276\030\352x\214!\366\277\320U\305\020\367\232\377?k\213\340\202\017\313\204\277~\233\240\253gV\256?2\306\354$\315}\007\300\'\3418\014\353g\007\300<6\023Y\2250\370?s\2319vQ\233\204\277\300eJ-iy\325\277\276\377\212\026O\310\365\277*\276-/[\n\352\277\037\201\031\353\333\323\004@\314\266\325\301\334\321\204\277PR\3267\234\256\301\277\022\333\030\365K<\002\300U\017rO\000z\002\300\275\013\231h+\031\000@\340\025\253\332T\254\202\277\234\373l\301\217\275\t@\203d\3551\2631\005\300\220\037]\306\347\343\004\300\372\t^\2548\220\003@i\220\276\031@%\204\277\347\202x\235\234)\353?\237\276\340\311=@\364\277N\351\354\244\246\371\364\277Iy\371\006\265v\t@\3747\017^9\262\204\277PR\3267\234\256\301\277\210@m\000\\\267\005\300\321[\323\014\342\316\005\300b\226\256Y\314=\374?\"\354\323\243`\031\233?\300eJ-iy\325\2777\243\304\033\203\316\354\277\344\020@\241\377\316\353?\207\241\200\261\"!\376?\207\200\250y\312\323~\277\347\202x\235\234)\353?>\035\337\276\260N\372\277\333\261\210\337\004U\333\277\354\023\365\"P\314\377?\350\310j\013\250\321\204\277\237\2142\030\003\017\335?^#\341\272\376\311\362\277\351{@\010]\223\361\277\241\025,\000\030V\003@\311H)\247\036B\203?\300eJ-iy\325\277\330o\354z\225\276\010\300!n~\201\361\204\365?\271\346`\376\235Q\361?[\350\201K\315q\202\277\013\024A_L)\010@\260\334<\216\033z\330\277\333\354:\225.*\326\277\013 \370<\227 \366?\262\310\316\203\350\317\204\277\300eJ-iy\325\277\021\201\262#\350*\266\277\266\305>\001\004\251\307\277\313J\203[\365\262\355?\347\360\035\243 \305\204\277~\233\240\253gV\256?f\3025\3423o\365\277\036/FE\227\212\321\277f\321$\377Q8\021@\275\014\005w/\366\203\277\233\344\310\024\217\330\344?<~\354\301\036\211\010\300K\216\331\362F\216\360\277n\335%\315\023G\007@`\037y\227[\006\202\277@\353\275-\\X\026@\371\311A=\303\254\010\300M\226\"[\230!\366?\326\221t\333\037!\363?\255\241\\\017\341F\212?\007P\323\006\350l\320?\216\214\306\211\276\264\345\277`\250\"@\236h\350\277e\006\315\013~\347\000@n\002E\241E\313\204\277PR\3267\234\256\301\277\311\013\336y\200F\376\277\013l/?\024\304\376\277\034\226\023\237\300\031\367?\371x\205E!\315\204\277PR\3267\234\256\301\277\026?\220\233\204\267\337\277}5\265\\\244\232\333\277\253\026G(\016\351\372?\004\223y|\037\211\204\277PR\3267\234\256\301\277\261i\210T\244c\377\277\037\265\036\370\"r\377\277V\207\005\222\314\302\010@C\326\000\'\260\276\204\277\300eJ-iy\325\277\332\210\227\360\261$\007\3003\3422;,\257\337?By\270\304\260\275\367?> /X\344\252\204\277\237\2142\030\003\017\335?\271y\341d6\211\361\277Y\253=\334B\273\362\277\353\215sr\034h\000@\315\343\372.3\315\204\277\300eJ-iy\325\2777\243\304\033\203\316\354\277\370\317\223\305a\'\342?\222z,&\025\330\365?\311L+[\355\321\204\277\300eJ-iy\325\277\336\272\355\333\352\360\003\300\253\224\327N\t\023\004\300t\252jk\035\352\372?F\n?\017\317G\204\277~\233\240\253gV\256?\332\210\227\360\261$\007\300\366\353P\262\374\256\337\277G9n\2048\221\360?zO9\316^\321\204\277\300eJ-iy\325\277\3471-\000[\322\347?di\3131\276\016\344?%AB\356\320\270\002@5\373*H2\316\204\277\300eJ-iy\325\277\332\210\227\360\261$\007\300\372\355\261~\377*\007\300\236\233A6T\374\002@\225\006\247v\342\321\204\277\237\2142\030\003\017\335?\217\273\337\313\226\002\370\277>B\317\235\223\215\345\277\234$-\343\257K\362?i\203\347\250\343\321\204\277PR\3267\234\256\301\277T\005\200,F\220\311\277G\301$\267\264\346\322\277\271\377u\004\302\003\363?o2\254\234Z0u\277\300eJ-iy\325\277\223\276\034u\367\200\342\277\235\276\242 \364G\345\277\323\257\2443\244;\362?\227\026\322T\235\347\203\277~\233\240\253gV\256?\'@\341H\021_\362\277\230+%!GJ\234?G\377!\355\240\246\371?\261\n\237P\277\302\204\277\347\202x\235\234)\353?/\004p\364M)\352\277g\231\373Y\207\024\354\277\032Z\354\270\226\220\361?\244\307\277e\321\321\204\277\300eJ-iy\325\277oz5\177\205z\366\277\316\313\023\312\021\217\367\277B\241\211\374S\203\004@\362\006e\254\357\315\204\277~\233\240\253gV\256?P9\2132t\362\364\277\325\367\236\231$\020\366\277\262\340l\005\345\362\372?\000f\214\034\013\201\203\277~\233\240\253gV\256?P8\307\370N\311\312?M\226\"[\230!\366?\230\211%\001\236\226\362?L\335\361\3312\347\203\277\345\256\303\233b\016\367?\264\336\265\375V\317\330?\032}\245g\010\331\361?goy\037x\303\366?\035\027\376\267\317\266m?\237\2142\030\003\017\335?o\337\023R\332\275\254\277\336\222\317(K\332\303\277\220\330\245\233\302G\332?M\330\203\330S\304\204\277\014~\033`\3516\372?\207\034\213\244a]\365\277~\247V\346\326\326\364\277_L\371\323\230\314\372?\322X\000\321\234\320\204\277x,\025\375\010\225\006@2J\204[(G\341?\262>\201\255\013]\364?\2245Y(c#\371?\347\370\327\234%\303\204\277\233\344\310\024\217\330\344?\365\342\212\210<3\366\277\355\326S\272\274\376\365\277R!\005\374\227n\001@\225\346A\364\236\312\204\277\347\202x\235\234)\353?\220\0173\222vu\377\2777\224\323\030\273`\377\277\301\n\202\037`\205\001@~h-j\177\320\204\277\300eJ-iy\325\277\265\301C\362\207]\001\300\373\363F\350m\240\001\300\350\005\016\271\376\257\364?\352YxI\325\214~\277\300\337k\327\333\345\363?\320\0337\212\022l\360\277\014\243\036\023\035+\355?\242\260\217\334\354\204\367?\033\373\326\026\027\225\204\277\300eJ-iy\325\277\340Y\340\330|\266\365\277\322a\3311\233\317\366\277~\374\202\276\244\232\001@\202\247\311#-\211\204\277\233\344\310\024\217\330\344?%\'6\323\364\370\363\277\316\006\306\177;d\362\277l\215\375i\260 \370?\233U]Vd\253\204\277\232\020\024\023U\275\360?\323\303\335\026\322Q\377\277L_3\207\217\272\347\277\032\335Uq\r\257\002@\021\035\213x\007V\203\277\007P\323\006\350l\320?B\037\304?\004\002\000\300\273\202\263U\270U\000\300\022\nZ\203TX\n@\317o\256\3157f\202\277\007P\323\006\350l\320?\272\235\303\3000\343\001\300?\373\237\342\254+\002\300I\337\211\211\367\376\360?7:\351e\356\223\204\277\300eJ-iy\325\277\341\2553\237\\)\375\277\251\224H\nT\236\372\277\217\236s}P:\331?\003\000\227\260\246\320\204\277\300eJ-iy\325\277\223\3555\267\317\316\364\277\004\266\010\333T\355\365\277\177(:\355\274I\367?\020(\000\302l\321\204\277\300eJ-iy\325\277\034\224p\272\252\022\350\277>\007\035\350i\270\352\277\336\224m\202#\230\356?\372hj#]\325\214?2Ms$p_\375?\255\2506R\310\027\362\277\246t\347\r\036\010\361\277J\214\233/\251s\375?\206\320Y\n\'\316\204\277\300\337k\327\333\345\363?\tS\212\302\337I\370\277i#\265w\236S\371\277\235\007\372Z\321\347\373?\323\"\0214\265v\352?\300eJ-iy\325\277+\322\031\t\025]\355\277\344\020@\241\377\316\353??\201x\313`Z\356?\031t\220\210\3768\204\277\300eJ-iy\325\277\374\215n\276\\\227\357\277\246t\347\r\036\010\361\277\2618\000>\253\217\001@\307)\177\353\366\315\204\277\300eJ-iy\325\277G\245m\361\034A\004\300\301\250\251\273\\a\004\300k>\272N\2575\364?\317\244=\030\332\267\204\277\255\003\222\313\030\304\024@\343@\227\215\0030\010\300+w\376st\250\006\300\201\211\234m\357\337\360?6\332\334\035\224\315\204\277\300eJ-iy\325\277\324O=\306e\316\326\277,\021\370xi\342\330\277\275wQ\215\250\004\371?\302#]:\211\222|\277\300eJ-iy\325\277\212\374=\032\325L\324\277T\243\326\352\206>\332\277\250b\316E\025\010\005@z;DZ\353\321\204\277\300eJ-iy\325\277\342\354C\307#\275\000\300\320\313\242\016\307\003\001\300\273A\2604^\272\361?z7\201\336M\213z\277\300eJ-iy\325\277#3\305\341\337\267\352\277\276\351C\r\325M\355\277%\335`\031\256\001\001@\007\300\257_p\257\204\277PR\3267\234\256\301\277\377j\031\273\250%\000\300\255e\300\'\007\264\364\277\274I\213\035\263\374\010@\177\202\320`Z\321\204\277\300eJ-iy\325\277\210@m\000\\\267\005\300]\313-\035.\306\005\300C\nP\211s<\360?40\204\360K\364\203\277\300eJ-iy\325\277\342r\213N\231\034\364\277\360l\031\"F?\365\277\242\236\260P@\312\350?\324Y\257vm\222\204\277PR\3267\234\256\301\277\355\206\r\037\201-\320?X\t/\317V0\316?P\r\221;\361\277\362?Yz\306\266\"\342\220?\347\202x\235\234)\353?\212\374=\032\325L\324\277\263\037\252m\347\370\331\277\211\255\377\017O\260\377?\3114v\"\271\214\201\277\237\2142\030\003\017\335?\"\031\302C\266\206\007\300\204\222)\333\006\202\007\300\236Hb\363\272\354\357?M%\013\300b\034\202\277~\233\240\253gV\256?\305o\306\373\253\037\346\277kwF\331\256\246\272\277\242\030\002w7\377\362?_s\'\212\007\303\204\277PR\3267\234\256\301\277>\035\337\276\260N\372\277\276\3357\303bL\373\277\306\277\362\371j+\363?v\032\250\027\003U\204\277\300eJ-iy\325\277k\030n)g\225\002\300\202\002\371\334\353\266\002\300\352\253)\276\275\035\365?\t\024\n\357\177#w\277\007P\323\006\350l\320?p\t\t\271X\266\261\277P=~\006\267L\266\277t|DhjZ\366?\203\3405j\347\321\204\277\300eJ-iy\325\277\3525\302\321\310\033\007\300\206]\014\217K\"\007\300<\212\227&V\227\352?`\331(7y\254\204\277\300eJ-iy\325\277\304\034_L\301\031\336?\375m\242\225<\373\326?\362\345<\213v\\\363?5\270\027#Y\376\203\277PR\3267\234\256\301\277\023\320\341\016nH\360\277\314\006\250\366\320z\357\277\256S\200\177o\024\362?[\005\266|K\216\204\277\300eJ-iy\325\277\351\342\3063\366s\344\277\320I\301\235\266\314\362?\024Z~M\275p\371?\316\324\312\026=_\204\277PR\3267\234\256\301\277&\365A\022_\014\010\300&\026VX\246\307\007\300>\275\006\016\276\276\375?\2227?\240\303\321\204\277\300eJ-iy\325\277\256\374\211\030\250\212\371\277\301s\375*\354\214\372\277\006\243\271V\326\252\353?\202\342\337\371\317[\177\277PR\3267\234\256\301\277\'\007\351Hh\350\322\277,\021\370xi\342\330\277\240)\234\'\304\366\361?/\332\\\203~\233\204\277PR\3267\234\256\301\277{K\340\221\363\353\365\277\001 Cs\313\254\366\277;j\331bM\334\360?\024\327R\310{\247\204\277~\233\240\253gV\256?p\236\027\333\177\324\006\300\237\007\244c(\261\006\300\033\372\2010v\277\363?o\004\342\237\262\300\204\277PR\3267\234\256\301\277\313J\356\241G\332\001\300\313j\372\362\370\"\002\300\'x\304\365\2020\365?a\272\203\360\234\333\203\277\233\344\310\024\217\330\344?].\030\241\334\275\004\300\331A\034\010\357\220\271?\txZ\263\215H\366?\374r j\315\304\204\277\007P\323\006\350l\320?\325\255oJ\026j\353\277d\363f\306jd\356?\034\335\333d*J\370?\021x\301\207\237\303\204\277\277u\221\326>\330\001@\325\344\267\371\244J\321?\337\215E/(\361\304?\332\315?\307\2060\004@\353\364\276E\013\t\202\277\2074:\007\222\233\021@\033$\227\377\360\232\010\3000\031_j%_\361\277\001v\367\177\374\254\371?&\322\270\377\010z\204\277\300eJ-iy\325\277\242\373m\233T\000\003\300iXa\010\017(\003\300\325\002_\233\247\014\372?\337\2269\261+\321\204\277\300eJ-iy\325\277\230Cn\376\002\365\001\300\'\034\353\301\024=\002\300w\245\334\325Op\370?C/\314\374\354\321\204\277\300eJ-iy\325\277{K\340\221\363\353\365\277\267\'\021_\243u\362\277$\372\325\"*\002\366?\337\020\370\351\207\005}\277\234\373l\301\217\275\t@\030b\032\317qF\353\277\356\247\255N\005+\355\277O\323^\035\177\262\361?\271U\271\270\027\313\204\277PR\3267\234\256\301\277l\r7C\211\241\360\277\t\035(\327&Z\354\277\301\274\362\211\361`\002@\262\325\374\222\203\222\203\277x,\025\375\010\225\006@\2175\230D!\243\004\300KM!\030d\270\004\300\331\231\242M\251\335\341?\245\274fX\346T\202\277PR\3267\234\256\301\277R\213.\2509\317\342?/\306\224 \027\207\362?\302\"i\223\016\014\364?\322\332\276\217#%\203\277\300eJ-iy\325\277\0336>6\372v\323\277\344\020@\241\377\316\353?\313\227\321\256>\"\355?\242#\200\373\345\321\204\277\007P\323\006\350l\320?Z\270\222\317\034\207\326\277b\300:\324\202k\334\277\336\310\246\317HU\354?Qn!s\325*v\277\300\337k\327\333\345\363?\326\000\327\371\000p\303\277\344h\224\3440\220\271\277\217\241\024}[T\347?[\340`q\233\310\204\277PR\3267\234\256\301\277>B\031C\270s\357\277\3252QON\345\360\277\263\306\272\302\330\021\005@\343\304\273^i~\204\277\007P\323\006\350l\320?\240\342\302%8\232\004\300KM!\030d\270\004\300\254\333\212}c6\366?|\271\240a\346\302\204\277\007P\323\006\350l\320?\201\241\030\331&\022\003\300Zp\032k\316Z\001\30007\326\257\254\201\364?p\377\243\206\342\316\204\277/\343\230#\323Q\013@\351\021\340u\316\301\366\277\276\030\352x\214!\366\277\271\010\241F\361v\352?\246\nL6\324\313\204\277\237\2142\030\003\017\335?\2661\035\255A\325\340\277S\306p\014\314\020\341\277\353\302o\\\211g\343?an<\270%\277\204\277\007P\323\006\350l\320?\232\214\212\336\004t\367\277\001 Cs\313\254\366\277\254\364,@\032\327\362?\010\311d\367\240T\204\277\007P\323\006\350l\320?\036\347\327i\225\030\300\277\024\007`\316:\216\314\277}\240\330\314\231\237\013@r\264\017\317\n\321\204\277PR\3267\234\256\301\277k\030n)g\225\002\300[;\375\036\023\373\000\300\263\302V&\206\265\361?\356V-t\353\321\204\277\300eJ-iy\325\277f\347of;\224\352\277\356\247\255N\005+\355\277_\346\010\276\230\274\376?\240\n\333\023\355\321\204\277PR\3267\234\256\301\277p\364\355\367\017\033\003\300:\232\367\306\336J\003\300\277\365\314\034\224!\363?\375\216\026\340\255\321\204\277\345D\351\232\305\000\005@\"I3\256\233\237\376\277N\315\021/\241\210\324?DU\217\233\337R\365?&\224\367F\271\016h?,\216et\373C\000@,\306\212\372)\236\366\277\245=\3709\025\241\322\277\036\365\363\232\250E\361?\230f\373\224\371\364\201\277~\233\240\253gV\256?@\260B\255WU\005\300\323&\266\300&o\005\300\306,\214\315OD\347?`yN\363\264@\204\277\300eJ-iy\325\277*\346\327\204\266\256\347?]\307\333\366W\343\357? iX\327\214`\363?\365#\263\252\322\266\204\277\300eJ-iy\325\277\333\367\030\203^\321\001\300\372(d4)\000\002\300m?\022\332~\202\004@\266ih\344\004\365\203\277~\233\240\253gV\256?\275\013\032%:\207\354\277t\266_C\203A\356\2776af\025\244\\\362?4\3714\370\375\022\204\277~\233\240\253gV\256?\210\253^\3364\231\260\277W\204\0354\315\303\302\277\272\204t\3612\026\364?\266@u\325\341\354\201\277\300eJ-iy\325\277n\206\304\215p9\355\277!\25107\033Z\360?F\322\253\326\205\317\351?\006\215\274\240\267[t\277PR\3267\234\256\301\277>B\031C\270s\357\277zLC4wk\360\277\233\202\210*\363\303\365?C\275\027\224\373\277\204\277\300eJ-iy\325\277\025\236\355M\330[\004\300\035Z\232\212x{\004\300\327\353\361y-\330\350?\346DV\374\027\317\204\277~\233\240\253gV\256?N \340\274W\214\366\277\366&\003h&\204\332\277\337\301pU\321]\371?\353\017?\362\322\320\204\277~\233\240\253gV\256?N \340\274W\214\366\277\267\354^\251y\240\367\277o\260\302f\250\371\347?.ng\322\266\277\203\277\007P\323\006\350l\320?~\270\336\315\357\304\373\277!$\304\2676\273\316\277\261\201?&\357\310\354?\025\200\263UQ\275\204\277x,\025\375\010\225\006@\23187\030%\001\360\277&\305\316Q0\202\335?\232LZ\025\026\213\363?\226\326W\367\021\321\204\277\300eJ-iy\325\277$\301\324\341\215\312\313\277\371\314\227\373B4\310\277\262\007\235g\245{\363?\247\230f\036\3706\334?\300eJ-iy\325\277\0336>6\372v\323\277!\25107\033Z\360?\247\177\203(\026\371\340?\362\374\372f\311\305\204\277\364L\016\245N\007\020@5*7\321\2336\360\2773\257$\322\256\237\360\277K\222!\275\210\262\373?\273\366\033\343\353\321\204\277\300eJ-iy\325\277\337\224\210)@\303\376\277\010\326i\327\212\203\377\277\313\321\035F\326\014\344?\003\255\231\360\233>\203\277R]\2758\202l\003@\274\037\330\240\333\330\346?di\3131\276\016\344?e\032\260v\227\231\364?\263\361\354\203\2417\226?\300eJ-iy\325\277\017e\223#\214\005\324\277\344\020@\241\377\316\353?\344\302\216\255B6\346?\"u\226oC\250j?\300eJ-iy\325\277\357^\221\'>\212\333\277m;\353\224\355?\340\277\274\026\242)hp\353?\005\331\036f4\361\263?~\233\240\253gV\256?\222\274\224\001\255.\276?\332\262\366y\037R\240?\244$\201\325c\216\364?[?\227|\006\252i?\300eJ-iy\325\277\017e\223#\214\005\324\277!\25107\033Z\360?[\332\243\330\221\n\363?\250\035\230\\\241\317\204\277~\233\240\253gV\256?s\267\302P\234:\005\300vu\305\361\nU\005\300{8\034\177\274l\341?1\326\025\017P\275\204\277~\233\240\253gV\256?\351\021\340u\316\301\366\277pO@G\261\324\367\277\372\362L\205\201\325\346?\363\241`\326\221\320\204\277\237\2142\030\003\017\335?\017\236\213#5|\363\277\304DuH\237\242\364\277kl\223nT\307\344?\224k\2511\023\301\204\277\300eJ-iy\325\277\201\230\221Cc\264\332\277\3423\332\302D\241\322?\306s\307\326&\206\355?6A\027\241\025\262\204\277\300eJ-iy\325\277\\4l\307s\232\241\277\'\216\375\006\222\004\342?4\010\231c.^\361?2\273\351\265\351\321\204\277PR\3267\234\256\301\2778\2275\r\230\017\366\277\\\006Q\216\242&\367\277\006h\327K\314\344\365?\242wO\212\240\321\204\277PR\3267\234\256\301\277\301\222\356\004\366\316\000\300\270\354\355\355.\025\001\300V\277Q\377;\320\345?\361\340\347\334G\246\204\277\300eJ-iy\325\277\277yC\217\331h\002\300\232\341\255\375\203\245\002\300%\204\373H5\263\357?s\365\026\314X\035w\277~\233\240\253gV\256?\262\370[\216w\237\272\277\303\342\242\352\377\325\311\277\323|\216\026\204H\356?Z}+\322\271\321\204\277\300eJ-iy\325\277\016It#0\340\301?\347\317Zc\033\177\242?\301N\232\316\t \364?\226\363\013\302\246p~\277\300eJ-iy\325\277\225\315\350,C\276\323\277\021\234}\360G\263\331\277\232\257\334\225\363\241\357?\n(\362\357&\302\201\277PR\3267\234\256\301\277\301\222\356\004\366\316\000\3002\\Z\210\240\307\361?\231B\320~\241w\366?m\373i\347\316\321\204\277\300eJ-iy\325\277\246]5\361r\345\366\277A\221\326\005\201\367\367\277\264\036\343\005q\305\341?\251,\351\303\201\321\204\277\300eJ-iy\325\277Swp,\230}\350\277\320I\301\235\266\314\362?B\206t\314\007\364\350?I\251\316&\376\317\204\277\300eJ-iy\325\277n\206\304\215p9\355\277n\212\324sp\300\357\277\004\233\213\344L\356\374?\021\013\273\324rv\204\277\300eJ-iy\325\277\332\210\227\360\261$\007\3000\023YEl^\000\300\n\200\325\010%\003\371?\263)\230\246hr\204\277PR\3267\234\256\301\2774\337\227\232\351\343\005\300u\252\342=\306\264\005\300\n!\033m\234\352\357?\367\373z\223\\\304\204\277\300eJ-iy\325\2778h\034\313\277\301\343\277\013\306\2704b\375\323?%\333`\357\205$\347?]e&{\353\321\204\277\300eJ-iy\325\277L\224\200\r\304\017\357?\320\307P\350\360 \353?\253q\260\327\363.\361?\212\016\304Z\023\313\204\277\300eJ-iy\325\277\363\311\337\022 \315\367\277\016=\247\\\307\331\370\277\340\241\330\361\'\266\360?9\344j\353L\303\204\277\007P\323\006\350l\320?Dg\034\346\340W\313?\206\026\335\323d\300\363?\352\317xG\356\233\350?\255\373/\3638\320\204\277x,\025\375\010\225\006@BO5\252\351\032\367\277\372\363\267\243\270+\370\277\252R\025D\360=\361?\270G\205r\206\317\204\277\300eJ-iy\325\277\017\236\213#5|\363\277\304DuH\237\242\364\277\345\220J(\325\364\354?\351`\r\276\322N\204\2772Ms$p_\375?\263R\302_\333\260\006\3001\243\211C\207)\005\300\007n]\331\253#\364?(e8\355b\311\204\277\233\344\310\024\217\330\344?\230Cn\376\002\365\001\300\'\034\353\301\024=\002\300\244\026\031\226\271\271\351?\225\335\322n\364\351\203\277\347\202x\235\234)\353?v\3056\340\332\254\361\277\346\345z\240\323R\362\277<\310\347\306\202V\340?\t\017\200\203\026\361\201\277PR\3267\234\256\301\277\313/,\347\222\376\303\277\2502v\254\264\321\317\277\246\325\326]/\310\346?\201\213\022\'V\267\204\277PR\3267\234\256\301\277P\nr\360\233\244\342\277n\0009\337\303j\345\277\226\007Y\205\017\247\345?\226\200\234\332 \257\204\277PR\3267\234\256\301\277,\227q\270QP\344\2778\026D\316\200\014\347\277*\017U\213\222\377\360?\255`!:#\313\204\277\300eJ-iy\325\277f\3025\3423o\365\2770\336\254\264\373\211\366\277ug\246\256H\216\370?\2555\302az\277\204\277~\233\240\253gV\256?\365\342\212\210<3\366\277\203\200\027l\333\177\364?\252\321\036\025Y\032\332?\004\34013R.\204\277~\233\240\253gV\256?\365\342\212\210<3\366\277\341\374\352\356;:\364?q\035~\345\247\013\362?\301\324\326}\327\317\204\277PR\3267\234\256\301\277J\263\341\200[\263\360\277s \270dd\352\361\277\004\237\317\306f\263\342?\211\246\0010\371\320\204\277\300eJ-iy\325\277\030\360)\317\037Y\314\277oS\003)\322B\324\277\302H\307]\034\343\341?U\252\300`!<\254?\300eJ-iy\325\277:\262\220\323\316\013\336\277!\25107\033Z\360?\206T\277\032l\240\371?\321\315\246\"\354\320\204\277\300eJ-iy\325\277T B\347\372k\007\300\263P\223\0347_\007\300\256\005\323\327\340\004\355?\277\226d\210\316~\204\277\300eJ-iy\325\277a\311\327\366\243\031\350?\005\355\367\256]T\344?\342o\007\260\'\206\374?6Z\\B\345\207\204\277PR\3267\234\256\301\277\373\342\354\262\337\022\007\300\376\035K\034\237}\242\277\352\370w\021\007\215\364?\263\232\237h\257\320\204\277\300eJ-iy\325\277\023\205B\330\273\365\005\300\213\276\264\252\031\003\006\300z\220d|\215\267\353?\304\032\2342\223\322\201\277\344\017|\032\367\371\023@\017\236\213#5|\363\277\234\020\210\311\225\273\316?\257?\005\366R\022\356?Sg\010R\327\321\204\277PR\3267\234\256\301\277\232]q\234,&\345\277\035\241\311E_\335\347\277e9\334{r\223\332?}Q\274\271\361\351\203\277~\233\240\253gV\256?\276\377\212\026O\310\365\277\272\202$\021\003\341\366\277u\327 [\275\261\361?\212\323\325\020\024\310\204\277\300eJ-iy\325\277l\302\227\014\327N\006\300\241\322\206\027mQ\006\300\201\030uEK\2634@`z\302\213\003\321\204\277\347\202x\235\234)\353?\237\217\307\207e\362\341\277Y\267I&\265\274\344\277\360\253\233\336\333W\330?\313<We-\320\204\277PR\3267\234\256\301\277\371\345\3071\235\261\340\277\002g\001sg\203\343\277P\223?\025\372\212\350?]\204\200]B\347\177?\300eJ-iy\325\277\004\224\350\020\036\224\324\277\344\020@\241\377\316\353?\305:\364\014\372\030\362?\031=\352\360\027\315\204\277~\233\240\253gV\256?\340 \350\330\323?\326\277\227\311\006%\352-\365?\341\375\327\024\200\327\345?h\327\261\244\027\316\204\277\323\322\351\217\237\354\027@\212Zp\236\205\350\350\277\202\016v\342\250C\353\277\240\334M\324z\207\362?s\370y\"\365\303\204\277\300eJ-iy\325\277\032zm\034\201\341\004\300\354\320M\225\003\376\004\300\243V8\236>\341\362?$\001\245\327\254\036\204\277\007P\323\006\350l\320?!o\230`F\315\003\300*\203{y15\357\277r\365P\263A\314\360?e\227\325H\353\321\204\277\300eJ-iy\325\277\314\351\340\236\331\237\363\277\225\206\013\007o\305\364\277,\000\260\242\275\203\366?\277i~6\273\320\204\277\300eJ-iy\325\277i\377\302\263J/\004\300\334\255\305\375\343\346\376\277b\271\332\262\367\361\365?\251\2639\267X\320\204\277PR\3267\234\256\301\277\371\037\030ZS\363\004\300\325\361\230tk\017\005\300\030\030\262\210\372\331\362?\357\354\2467\310\321\204\277\300eJ-iy\325\277\023\205B\330\273\365\005\300\002\345\037\002WL\005\300(\235\345\026f`\363?\225\357\034D\363\317\204\277\300eJ-iy\325\277\363\231n\250:\264\000\300\213\371f`C\330\000\300Sc\'\334\204\302\310?fB\213\203\203\n{\277\300eJ-iy\325\277\355\024\035\037/@\341\277EnZm\246\016\344\277\360L\335\215\016%\344?\"\371\014\234\347\321\204\277PR\3267\234\256\301\277P\nr\360\233\244\342\277\235\276\242 \364G\345\277?\240\240\033\3679\351?\230\274m#v\023\204\277\233\344\310\024\217\330\344?\257\300\035\216\277T\306??y\276q\234\364\363?\370\314\231\245p\344\324?\342\01002\330\262s\277~\233\240\253gV\256?$1\025\221\305!\361?\223\261\320\007\233A\356?\031)\345\334S\366\347?\264\203?\013ry\204\277\300eJ-iy\325\277Dh\340\037\006\201\365\277\031\377\367\223c\233\366\277gFzU_\322\352?\215y\243\3012\316\204\277\007P\323\006\350l\320?\367\3735\376X\231\364\277\304DuH\237\242\364\277\021\354,[K\203\360?\303\037\207\262a\302\204\277\234\373l\301\217\275\t@\226Z4\363\313\247\372\277_ad@\002\222\373\277\355\367\355\204\316\347\360?\207b?\001@\321\204\277\300eJ-iy\325\277$2m\271\322\354\005\300C \032\035\273\037\264\277\"\221\036\255\277\304\352?\230\373\307\375\351\321\204\277\300eJ-iy\325\277\257vB\2212+\006\300D!\226HQ7\006\300\336\000\344%\003\347\350?\362\225cY\353\320\204\277\300eJ-iy\325\277\030b\032\317qF\353\277\002\361\234\007\024\331\355\277hm\252\267\037[\343?cY\212L+\310\204\277\300eJ-iy\325\277zWo\240\336\252\354\277*\203{y15\357\277\356\006\237T\335\231\346?\327\220\245\035\307\321\204\277\300eJ-iy\325\277\007\264\227\305M\204\006\300H\202\257\037j\243\373\277{\351<\220s\027\002@\"\376Rb\321\316\204\277PR\3267\234\256\301\277i\251\354\226\272\350\007\300=\365\ny>\266\007\300\0378\336\267\334\264\344?\264\264}\204~\271\204\277\300eJ-iy\325\277\247\261\210\267RX\376\277\264w\236\203\301sa?\271\001\374=Q\210\335?\032\027\206\221\250\212\202\277~\233\240\253gV\256?\310\267\212\263\240\323\366\277Yp\213&\031\346\367\277\214\013\343;\221%\361?\n}z\222\350\321\204\277\300eJ-iy\325\2778\226q\323r\346\313?|\217>R\362\323\360?\017\023\3738l\"\354?:wNG\317\n\030@\300eJ-iy\325\277\361\257pc\336=\317?\"\037:\276\023\322\317?\360A\220ZR\317\001@\204\352P\200\276\321\204\277\300eJ-iy\325\277\332\210\227\360\261$\007\300\372\355\261~\377*\007\300|-Y\364a\314\337?\373\362{g`\321\204\277\300eJ-iy\325\277\"\020;\256\362(\337\2773\223I\\\251.\320?\315\352\030\323\324\341\357?T\270\332\024\200\320\204\277\300eJ-iy\325\277T\005\200,F\220\311\277G\301$\267\264\346\322\277\232\037WBh\305\350?qu*lG3\202\277\007P\323\006\350l\320?\325\334\210\214\356\267\375\277R\tN\241\334\217\376\277\306\"uzHB\357?\354\331\252\235v\275\204\277\345D\351\232\305\000\005@O|b\360\355\221\321?\"\225\236)g|\305?\251+r\236\302\243\363?Q\213EK@\271\204\277~\233\240\253gV\256?\004\361\302l\301d\004\300y\224\252\302\252\323\274\277\353u!\t@\370\343?\020\303D\025\032N\203\277~\233\240\253gV\256?u\320m\306\270\240\003\300\225\200\005\342\265\304\003\300^\246\003/9r\353?\005\367\002\n\232\321\204\277\300eJ-iy\325\277\014\300\210\376\333\"\376\277\304\316\020\335K\370\376\277\306\331*0\224\247\356?x\374\313&\034\320\204\277~\233\240\253gV\256?,\306\212\372)\236\366\277\237\r\252\210\341\261\367\277R\236\237\370ej\333?\265>\314\312\340\327\203\277\300\337k\327\333\345\363?\030b\032\317qF\353\277\002\361\234\007\024\331\355\277?\322\312\'?\236\354?\325\311\222LP\275\204\277PR\3267\234\256\301\277Ot3\2037\377\375\277\364\214z\036|\325\376\277\031\334\226\211\n\207\350?x\246M\t\347\321\204\277\300eJ-iy\325\277\251\360\230\337\031\354\001\300\263\213E\322`4\002\300N\014\014\207L\014\374?\213\001\002\230\354\321\204\277\300eJ-iy\325\277\251\360\230\337\031\354\001\300\263\213E\322`4\002\3007\035C\004\212`\352?T\250`\230\r\206\203\277\300eJ-iy\325\277\340\323\230Q\007W\002\300\261\300b\036\034\224\002\300\024\206b\245\252\206\345?\023\005\265\033\204\314\204\277PR\3267\234\256\301\277P8\307\370N\311\312?\206\026\335\323d\300\363?z\302\216\210\325\033\357?\357\341\004\023\025\320\304?\300eJ-iy\325\277\322\374\325\026{\310\356?!\25107\033Z\360?\354\276Q\332\316\265\356?J\211\270\267\002\321\204\277\300eJ-iy\325\277\263\250\230|k\367\002\300&Q\010\016\320\234\002\300j\212\251M\263\004\356??\304\010\354m\272\204\277,\216et\373C\000@\350\034\027\\\254\265\010\300\3252QON\345\360\277\317\320\006\375\ny\345?.\345\344\303\373\320\204\277\232\020\024\023U\275\360?w\223B\037E\300\005\300\260\365\177j\327\363\002\300\324dK\250\022H\367?\020DhM5\255\204\277\300eJ-iy\325\277\350r\355x<\374\004\300I\202>d\037\030\005\300-]\373i\253\273\000@|Zv9\353\321\204\277PR\3267\234\256\301\277\313$\211\357\234\254\374\277\264\033\347\213\306\212\375\277\3623\256\016\305\225\354?\267e\336:\023\321\204\277\300eJ-iy\325\277;\324\302\336\256\317\004\300\004\260\002\266\233\354\004\3006\240\331\345\325\345\341?\032\276]\000\362\267\204\277~\233\240\253gV\256?\345\337\211\212\225\365\371\27749\300f[\365\372\277\003\250\324\2506\023\351?D\322Ym\262\321\204\277PR\3267\234\256\301\277\025$5\325M\273\367\277Yp\213&\031\346\367\277\037S\002\377\335\277\340?\347N\263\345\226\310\204\277\300eJ-iy\325\277\345\260pH\275\247\347\277\243\352-\360\006\311\343\277\033\237XZ\025j\344?%c\244sc\317\204\277\300eJ-iy\325\277\272\236\033\351=\256\346\277=\317f\374^\326\311?8;\273g\210\207\360?B\r~:\230 u\277\007P\323\006\350l\320?\202\226\341\362H\036\361\277\346\345z\240\323R\362\277*\262\034tTQ\347?\\+\337(Ij\204\277\300eJ-iy\325\27746\306\337\206\365\346\277\235\276\242 \364G\345\2779\270$\206<\002\371?\002\361Wz\263\316\204\277PR\3267\234\256\301\277^\330A\204Lw\010\300\321[\323\014\342\316\005\300\256\\8~1v\344?\332\220\203\374\321\315\204\277PR\3267\234\256\301\277\223\276\034u\367\200\342\277\235\276\242 \364G\345\277\347\034.\367j\346\361?Zd\t_\301\201G\277\300eJ-iy\325\277\215i<V\321%\332\277!\25107\033Z\360?t\234\217\350\005\004\353?\353\224\307\031\310\321\204\277\300eJ-iy\325\277\001\205\034Y\322V\343\277\202I(\230\322\030\346\277f\026_\212\364\306\341?\274\364\313\020\362\263\201\277PR\3267\234\256\301\2770\311\307\243\212\034\341\277t,\304\256\326\353\343\277\250M?\243\250\267\347?\346-Z\365\245\320\204\277\300eJ-iy\325\277\"I3\256\233\237\376\277#K\344_\254\262\376\277\2261{\177-b\353?uZ\257\367A\320\204\277\300eJ-iy\325\277\025$5\325M\273\367\277&\034\\}_\310\370\277g\2518\372|\277\362?\204Y\216<\341\321\204\277\345\256\303\233b\016\367?\266`6\357\031#\363\277:\240\375\353\227K\364\277\374\232\352\016\213\255\346?X\0017Q\321\317\204\277\232\020\024\023U\275\360?\3525\302\321\310\033\007\300\206]\014\217K\"\007\300\004\212\017b*\356\336?\tX\003\200\226\321\204\277PR\3267\234\256\301\277\003\006\331\020p\201\343?3\3422;,\257\337?\260\224[[\306*\353?\270\327|\177\326\317\204\277PR\3267\234\256\301\277\362*\355\025\216\007\006\300\377NZ\232\315\013\006\300\202d\024\360\330\324\350?6\223#V\225\300\204\277~\233\240\253gV\256?\322\351B\311|\177\004\300\356\2330IH\236\004\300\2465\'m*\274\356?\003\270\004\272\302\016\204\277\237\2142\030\003\017\335?\334\241Bf\316\212\005\3003nl\367\313\311\004\300^\250\022p\026\313\345?\024m k\217\316\204\277PR\3267\234\256\301\277\002.\356\0235E\002\300l\356&p\230h\002\300v\030\026\2609\245\340?\251\211\256Ku\373\223?\345D\351\232\305\000\005@n\206\304\215p9\355\277t\266_C\203A\356\277\351$\251L\002\241\364?\032\010S\217\326\245\204\277\300eJ-iy\325\277\235\037\356\314\253z\002\300\202\002\371\334\353\266\002\300\330\330\325DVv\352?\322\310$\\\254\251\204\277\300eJ-iy\325\277\016\251\302\t\023p\005\3000\330\246\217B\211\005\300\317\010\004z@\032\373?f?\260NDE\204\277\237\2142\030\003\017\335?\375QnE\214\277\001\300Zp\032k\316Z\001\300\224\022m\250\274_\346?\316\030S\232\217y\204\277\232\020\024\023U\275\360?h\333\340WP\325\363\277\234\262\226\326\201F\363\277\363\013\201\334^V\353?/\022)_\306\321\204\277PR\3267\234\256\301\277#\016\213]\330\222\365\277\32323\306\343\373\355\277\021jFf\227\266\355?\271\216/e\352\321\204\277\300eJ-iy\325\277\270\264\211\265\371\225\372\277w@\031a\232\200\373\277.6\221\324\214\276\344?j\030_\345\304\306\204\277\300eJ-iy\325\277Z\361\212\317\305\375\365\277t\345\005\257:\025\367\277\253\215j\222g\025\354?\256\350\301\n\227\321\204\277\300eJ-iy\325\277\372s\3271K\304\301\277\336\034k\275\367/\316\277\255iAi\226\252\351??\272N;\302\'\204\277PR\3267\234\256\301\277h\332\034\036+\254\311?\014\336\320\310F\000\350?\274\177w\315<\245\327?:\235{\221\340\321\204\277PR\3267\234\256\301\277\2763\207\030n-\255?\031X\023\357\226\327\246\277\315;k/\263%\356?\233[\217<\002\227\204\277\302\312\304\205\026\346\014@\253\210\337\215\007\n\242?\332\262\366y\037R\240?\020\344$I!\332\362?\354<\270\265\321\331\201\277\300eJ-iy\325\277\241\236\223?\261/\323\277!\25107\033Z\360?$ \2470\245\352\350?[\355\265Q\346\321\204\277PR\3267\234\256\301\277\367\3735\376X\231\364\277KS\'=\035\271\365\277\333$\'\310\371.\341?\263z\034u\236\317\204\277\237\2142\030\003\017\335?\330\272\213\261G\021\363\277R\177\262\0140:\364\277\217\033f\243R\211\361?4\3423Zp\307\204\277PR\3267\234\256\301\277\222(\336\007\223\333\375\2773\3422;,\257\337?ogx\034\364^\347?h\277\350\353p\235\204\277\234\373l\301\217\275\t@ZkCHP\236\002\300SD\217\233\273\331\002\300K\244@\"\272]\361?\326\\\024\225\342\321\204\277\300eJ-iy\325\277\3738\303\317oY\003\300\226K\350\225\372d\003\3005n\000r\340\231\335?\345\355\257$\3118\203\277\237\2142\030\003\017\335?6\267\202\227$ \347?\244!\035\304\0170\362?z%M-\363\010\367?PvX\223?\321\204\277\300eJ-iy\325\277\277yC\217\331h\002\300R\tN\241\334\217\376\277\363,x\224M\236\371?4\333u\361vl\200\277\237\2142\030\003\017\335?\307\302\301\231~\307\010\300\310d\326D\3258\376\277\360|\022\322\236\r\343?u\010\313\330B\247\204\277\233\344\310\024\217\330\344?\316\002\214\024\366\005\362\277\346\345z\240\323R\362\277\007\303\373\201-a\316?2\316\271\031N\214t\277\300eJ-iy\325\277G\246\305\031*\014\351\277\364\3238\036\030\254\353\277\346\004\311\335\336\354\344?Nu\356y\325\320\204\277\233\344\310\024\217\330\344?\365\342\212\210<3\366\277-H\347LrI\367\277\356>\234\321\022;\374?\352m\375(P\274\204\277~\233\240\253gV\256?\004\361\302l\301d\004\300\221\352?z,\204\004\300K\370\304\357z\304\343?\320\374V\271\324x\204\277PR\3267\234\256\301\277F\203;\346<}\335\277\226\315\311\006\013\234\341\277\336\304\242\306\263\200\355?\257\373\246\020\240\265\000@\300eJ-iy\325\277\257\300\035\216\277T\306?55\375\204:\207\356?\225\261pan\315\324?fE\021Q~\333~\277\300eJ-iy\325\277\032\032\0376\236Q\301?\332\262\366y\037R\240?\273\305O\315\211,\355?q\2448|\236\276\204\277PR\3267\234\256\301\277\217\032\326\211l\307\306\277\036/FE\227\212\321\277\264\272tt\273\037\345??\205\276\342\277\321\204\277\300eJ-iy\325\277\002.\356\0235E\002\300\311\237\027?\264\202\002\300\206R\360\262\0238\346?r\214Y\276\336\314\204\277\007P\323\006\350l\320?\310\267\212\263\240\323\366\277\210.\365gI\303\367\277gi\246\256\212\206\344?\373\335\r\n\327+\204\277\007P\323\006\350l\320?\r\205\340\255\030\026\365\277\325\367\236\231$\020\366\277\322\032I?\321\330\341?\265R\222\3650{\204\277\300eJ-iy\325\277\364\356\031\227\'\362\354\277\003\236\360Fp\352\361?\346l;x)g\340?\262\352\205I\373`\204\277\237\2142\030\003\017\335?%\264\201\231}\342\352?M\226\"[\230!\366?\026\267\340y\237L\337?^d\317\000\034\036\203\277~\233\240\253gV\256?\247\352\200\267\373\316\355?I\271\236\363r\n\352?r&\034kD\220\356?\326\225\301\357\351\321\204\277\300eJ-iy\325\277\205\003\340.E\367\366\277)\262!\345\350\010\370\277\336Q6\202\341*\347?+\335\350\317<\320\204\277~\233\240\253gV\256?Y,3 \211\n\377\277\371\314\227\373B4\310\277s\242\2422x1\344?s\"`O\262\315\204\277PR\3267\234\256\301\277\342\354C\307#\275\000\300\320\313\242\016\307\003\001\300\322\003\351\'\340\261\375?\333\305\321`6\305\204\277\233\344\310\024\217\330\344?+\321\301\340\007\222\010\300\310d\326D\3258\376\277\322\251\036\246\304\374\363?\235\004)x\214\317\204\277\300eJ-iy\325\277\357\021B\240q\241\007\300l\263t\272n\223\007\300FhDt\203\331\351?\235&+9H\203\204\277\347\202x\235\234)\353?\367\3735\376X\231\364\277f\310\241\305>\350\364\277\351R\017):!\340?\003\373I}n\224\204\277~\233\240\253gV\256?\371\024\341su\377\362\277\367\230\244\361X\300\363\277a\3270k\333\037\346?\r\312\246}\230\301\204\277\237\2142\030\003\017\335?\033o66\243\355\362\277\231\034\321n\370\005\364\277\350\013%\270\265\367\330?S\013\231\302\313\303\204\277\300eJ-iy\325\277\352\325s\353\345\213\303?\341\374\352\356;:\364?(Y\334~qA\341?\023\3704mj\237\204\277PR\3267\234\256\301\277\017\327\203#\336\362\342?\254\323\200F\256\230\336?\026\004/\315\350\273\336?\223\373\312\317\241G\204\277PR\3267\234\256\301\277\345\336\305Pp\314\317?\216i\210K\3558\302?\213h\337.\217\375\356?\240\235\275\037qA\204\277\300eJ-iy\325\277\252^\352&\211\021\275?Y\206\010\254\317\304\205?Y\343\306\350\313a\332?\266\312\000\341^\321\204\277\300eJ-iy\325\277\266`6\357\031#\363\277\303\342\242\352\377\325\311\277\332,|\2751\326\362?\024\242;\264\205\273\204\277\007P\323\006\350l\320?Q\215\336\370Se\374\277\022\230\272\016\'E\375\277\247\314\321{_h\340?\013\300\317A\3468\202\277PR\3267\234\256\301\277\014\221o\274\003\325\353\2779\244\300\315\270\271\320\277\365\213\\Ez\344\336?\300\255\321\024\n\246\202\277\233\344\310\024\217\330\344?\374\215n\276\\\227\357\277\3252QON\345\360\277\371 \215\001ZB\341?\300\311k\315|\321\204\277\300eJ-iy\325\277 \306\306\245\343\336\344\277{\035\235\310\277\227\347\277{S&M\230\232\347?\247/_o6\263\204\277~\233\240\253gV\256?Q]m\216nL\005\300\032\304\324\"\357:\005\300\254\245\\h\206\375\363?\371\025*lQ\321\204\277~\233\240\253gV\256?w\351\030<\325\006\002\300\020=6\241|N\002\3002\001A>\234m\350?\226\026Y\354\214\306\204\277\300eJ-iy\325\277%\'6\323\364\370\363\277\037+\203cv\034\365\277\373\023j\235\3170\346?6\201\3201V\314\204\277\300eJ-iy\325\277\205\003\340.E\367\366\277)\262!\345\350\010\370\277\020\34236\256x\331?\013\317_\361\262\306\204\277\233\344\310\024\217\330\344?(\2244\017\361\321\371\277c\367)\250\213\322\372\277\276\253=\367\277\303\342?r\267\355\255\r\237\204\277\237\2142\030\003\017\335?\326\000\327\371\000p\303\277\250\250\332\027\010|\305\277\237\210\247[\237\'\352?\325\354\000\260La\335?\300eJ-iy\325\277\225\315\350,C\276\323\277!\25107\033Z\360?\263Vq\364}o\335?Y}\337^d\277\203\277PR\3267\234\256\301\277?\251>nD\313\321\277\245\002F\204\353\313\327\277\340vW\243\304Z\345?w\240@@\026\273\204\277PR\3267\234\256\301\277:\262\220\323\316\013\336\2778Q\366\203\252\341\341\277\246Zb\0073\311\342?\331\301[\302&\271\204\277PR\3267\234\256\301\277oz5\177\205z\366\277\023\317\251\342/\254\353?af\223\216a2\363?-|\332\t>\321\204\277\300eJ-iy\325\277[\026\305S\315\"\353\2771\257\006ID\266\355\277\356\307\274\365\202\031\335?F|\213\005\301\321\204\277\300eJ-iy\325\277f\347of;\224\352\277\356\247\255N\005+\355\277\215w]\224\265\216\326?\371\373\370\r\203_\204\277\323\322\351\217\237\354\027@5*7\321\2336\360\277K\216\331\362F\216\360\277\263`\210G\205q\325?\327\005\371i\347\321\204\277\300eJ-iy\325\277\345\336\305Pp\314\317?\216i\210K\3558\302?\317\234\315\257\345\273\347?u\310\353\351\017\321\204\277\300eJ-iy\325\277\264\200\203y\2463\344?.\272\210\326\244\205\340?^\3268s\311Z\352?2\224X}\234\343@?\347\202x\235\234)\353?\236\371\210\032\001M\375\277\362\205\370\315,\275\273\277\241}\2238\362n\351?\0175\273X\252]\204\277\300eJ-iy\325\277\274\266n6MI\000\300]\006\340\322W\233\000\300\237Ep[]\272\342?:\231\026K\020\272\204\277PR\3267\234\256\301\277S\246\211np\313\372\277\245=\3709\025\241\322\277\373w\330.\205\326\342?\361\253Ie\272\270\200\277PR\3267\234\256\301\2778\2275\r\230\017\366\277\\\006Q\216\242&\367\277\337\275\254%\301y\341?$&&\013\035\301\204\277PR\3267\234\256\301\277\244D\212{V\177\370\277#\206\226\025\326\207\371\277J=\0131\232\212\345?h]-\232t\317\204\277\300eJ-iy\325\277\206W3\365$j\376\277fR=Z\353=\377\277\235\032GRx\276\000@\262\217;\304\316\321\204\277\300eJ-iy\325\277z\254\355\224a&\004\300d\367\270\354@G\004\300\264\210Jhs\273\341?y\016\217O\364N\203\277x,\025\375\010\225\006@\362*\355\025\216\007\006\300du\327{0\020\366?\240N\333v\021\036\321?\213_\261\267\017\305\204\277\232\020\024\023U\275\360?f\347of;\224\352\277\261\314\337#\331 \353\277Dv\312\341\227\245\325?\237e\005I\225\306\204\277\300eJ-iy\325\277P\nr\360\233\244\342\277n\0009\337\303j\345\277j.]GM\345\344?\373s\030*\334\321\204\277\300eJ-iy\325\277\2763\207\030n-\255?\031X\023\357\226\327\246\2775r\000\3060T\361?9\36518\342\005\204\277\300eJ-iy\325\277\212\374=\032\325L\324\277T\243\326\352\206>\332\277\001\375\225\037\"!\333?5\272s\305p\316\204\277\300eJ-iy\325\277\326\000\327\371\000p\303\277\'uw\330\222\004\251\277\210\004\366\'w*\335?\333Lg\201S|\204\277~\233\240\253gV\256?Tk\341\035\255\276\361\277`P\316\374l\247\272?RS`\346\371S\326?\265\037\013\241a\221\204\277\300eJ-iy\325\277\275\013\032%:\207\354\277YA\345\272a\022\357\277\334\370\365\214\376\032\341?\r\306z\"z1\204\277x,\025\375\010\225\006@\337d\027\277Z\252\007\300U\324\277\231\326\244\007\300\264m&!r\260\345?\337)6\225m\313\204\277PR\3267\234\256\301\277\210\226C\035\354\375\001\300V\332T\003E\032\002\300v$scK;\334?}3K\351\220\317\204\277\300eJ-iy\325\277\232\\\031t\037[\000\300F\'+\262\277\254\000\300\022\311\263\036\022\321\342?m\332!\014\004\305\204\277\300eJ-iy\325\277@\006\031\312\347\233\001\300)\347\315uY\335\001\300\311D\244\003\316?\340?\227*\200\035\350\315\204\277PR\3267\234\256\301\277\031V\213\300\206\207\364\277c2\334]\265\247\365\277t\363\364\216Vu\342?\351\220\021F\2500s\277\300eJ-iy\325\277g\036\270\025\312t\320?\025x:@kO\303?\365\214n\266\261\206\320?L0h \t\321\204\277\300eJ-iy\325\277\002A\201a3\216\354? \'\300\201U\256\350?\237W\340X\341}\327?2\207\007\230F\323\177\277\347\202x\235\234)\353?^\272\013?X\334\326?\"\037:\276\023\322\317?\031o\216\'\375v\332?1kwC\n\237\204\277\300eJ-iy\325\277\r\205\340\255\030\026\365\277\246t\347\r\036\010\361\277C\002HwI\223\362?\230V\256\346\366\320\204\277\233\344\310\024\217\330\344?\221NC\272=\t\003\300iXa\010\017(\003\300\303A\010\334V\027\337?\251\346\236#\233\321\204\277\300eJ-iy\325\277Sv\030\004\213\262\003\300}\241P\301\035\326\003\300^\253;\214\264\372\307?\233MG\007\242\206\200\277\364L\016\245N\007\020@\320{\031_\335\235\356\277\177%\004\272{\024\360?\371\317:\245{\376\342?U\353\343; \362\203\277,\216et\373C\000@\320{\031_\335\235\356\277\216i\210K\3558\302?VVM\246\303\224\326?(\203\n\341/c\203\277\300eJ-iy\325\277B\026=\252@\244\327\277GK\300Ka<\335\277\354[\027\235\377\303\317?0\300Md?\213\200\277~\233\240\253gV\256?\362u\214L@Z\360\277\351{@\010]\223\361\277S\353\\\332\327\320\364?\220 \325\266\265\316\204\277\300eJ-iy\325\277\254]\227\033\026\305\007\300.\r\304\333\375\350\005\300\323\354\010\303\370k\347?\004\355\025\332p\306\204\277PR\3267\234\256\301\277\343\226m\252\223v\004\300z\013\213Y\224\225\004\300G\233\321\211U\370\335?\365\214\263\374\303\301\204\277PR\3267\234\256\301\277%\241\356K\177\231\000\300\267\261\254\363O\313\374\277<dy5\315\260\343?\016M\306\300\364\320\204\277PR\3267\234\256\301\277\342r\213N\231\034\364\277\360l\031\"F?\365\277\324\002}\311\021\004\333?\275\367\233\032\273;\203?#\240x\356\031\263 @x\336\341U\367\022\360\277\032\3734\262B-\352?tYX\350\303\226\343?\022\310\362\006(\244\204\277\237\2142\030\003\017\335?\223\276\034u\367\200\342\277*\371\337\344\204\337\344\277a\004\305\257`\356\326?Kq\200Dl\253\204\277\300eJ-iy\325\277}d\213\007\020R\364\277\360P>\254@\316\324?\002\350\363\260\273:\362?\345\217\376\240\351\321\204\277\300eJ-iy\325\277\205\003\340.E\367\366\277)\262!\345\350\010\370\277\005\306\277O\242K\364?z\336\000+\354\310\204\277PR\3267\234\256\301\277&{\211\231\324k\373\2779M3\242\211s\365?BK\222\301\375-\363?\360\"`/$\314\204\277\300eJ-iy\325\277d#C\345\241\251\003\300\t\021\253\321i\315\003\300\355\363\3550~-\335?\030E`[h\314\204\277PR\3267\234\256\301\277(d\303\244\013\271\002\300\307\3244\213o\342\002\300\340H1\240\021\313\340?\374\367{\203uxy\277\300eJ-iy\325\277\363\002\330\022\311C\347? br7\177\203\343?|\247\241\305\024\016\310?nt\277\3039\201\204\277~\233\240\253gV\256?g\345\277\025!\376\360?du\327{0\020\366?\023\222H`\n\361\360?\210+Q\354R\270\204\277\234\373l\301\217\275\t@G\245m\361\034A\004\300\360f\023\375\214>\004\300\373{\3347\032\253\341?MDy\214V\316\204\277\300eJ-iy\325\277\264G\213y\375\274\364\277\034\225\275\373\354\333\365\277\237\335\375\300\022@\347?\256\304Q\026\\)\204\277\300eJ-iy\325\277\241\236\223?\261/\323\277!\25107\033Z\360?\320*\304t\235 \322?*\2364[\262\321\204\277~\233\240\253gV\256?\2763\207\030n-\255?\031X\023\357\226\327\246\277]oC[.x\325?l\036% N\266\203?PR\3267\234\256\301\277\361D\353\226\035\272\271?$Y\243\022\375[a\277\360\"\014,C\202\335?\276%\354\220\360\370\203\277\300eJ-iy\325\277\213M\035Vu\000\310?\276\007T5\3676\265?\216dA_\336,\330?\005\236\005\224\326\321\204\277\300eJ-iy\325\277\230\263B\234\"\356\261?\361\000\3472\243P\240\277\013\026!\303\024\017\345?\274\263\372\302\372}\316?\300eJ-iy\325\277\017e\223#\214\005\324\277P\252w\r\\\266\355?\273\220\204\3016\256\333?\301\273\324\255\273\321\204\277\007P\323\006\350l\320?\001N\324\251Cv\315\277\262Z\\#\021\316\324\277\205\337\356\177\271\327\324?W&%\210\023\307\204\277PR\3267\234\256\301\277\250v\340f\217K\365\277_\234\026\366+g\366\277\334\306\376\352\236\327\373?\373-W\"\354\321\204\277\300eJ-iy\325\277\370O\211\3048\014\374\277\346o\0265\200\250\374\277\3443lcA\024\320?.,Y\340~\312\204\277\233\344\310\024\217\330\344?\350\035o\204\271\200\355\277\332\320_\037)\271\365?\014w\324\333\231\275\335?\220Y\333\250\330\313\204\277PR\3267\234\256\301\277Swp,\230}\350\277\261\314\337#\331 \353\277\230}\314\002\321\032\342?\303D\004\025\341\321\204\277\300eJ-iy\325\277(e\033\315\030\204\347\277\373\377\303\355*-\352\277\220H H7k\323?\252\024,Mo\321\204\277\300eJ-iy\325\277\254z\t\'\3456\337?\204|T\212\272\021\330?\nq\333\nMm\332?\252u#V\235h\204\277\014~\033`\3516\372?\245i\304\377]\244\355\277\234\206\3544\351e\304?3y\024\225\215R\336?\206\316*\216\333\270\204\277\007P\323\006\350l\320?J\023\304U&\345\356\277K\216\331\362F\216\360\277\307|.=\226\317\360?:\202\226\374n\321\204\277\300eJ-iy\325\277\231\230\031\355\3572\356\277\222+\370T\017Z\360\277^\307:\300\254\252\340?\317\233~~\240\302\204\277PR\3267\234\256\301\277\221NC\272=\t\003\300\335\350\006\370\3020\003\300\361\251\214\235\376\376\335?qL\342|\307\320\204\277\007P\323\006\350l\320?45n\267y*\002\300l\356&p\230h\002\300\342R.z\363\357\342?\035\004\020\223\301\321\204\277PR\3267\234\256\301\277\300\0306\214k.\364\277\201=\034N`\027\364\277\243\364i\277=\235\326?\353\242g\242\357\314\204\277\300eJ-iy\325\277\3021\341\001\210\224\362\277\367\230\244\361X\300\363\277\236O\330F\267\324\331?\007\321\212\021\354\321\204\277\300eJ-iy\325\277\326\000\327\371\000p\303\277\2146\\Y\005@\340?8\334\000\314\377n\347?# \001\337\354\321\204\277\300eJ-iy\325\277\271@\351d\215\022\322\277G\206r\001\213\021\330\277\345)U\020:\022\330?;i\252\202\266X\010\277PR\3267\234\256\301\277\"\020;\256\362(\337\277{XO~\351l\342\277/l\277\351i\367\346?\027\314\302\037\262\246\204\277\232\020\024\023U\275\360?\216\357\333\315\265g\257?5\267m:\0003\366?\030\320\212nK\t\354?\273\235xb\312\321\204\277\300eJ-iy\325\277t\254\213j\276F\363\277\013\342\223\252gn\364\277\313\025\270O\2424\334?\351[l#P\306\204\277\233\344\310\024\217\330\344?\244D\212{V\177\370\277#\206\226\025\326\207\371\277!a\003\342T\271\341?!f\234\035D\017\201\277\300eJ-iy\325\277\365\342\212\210<3\366\277D\'\234m\n8\367\2778\211\237.D\322\356?dF\241&\240\321\204\277\300eJ-iy\325\277\275`\230\031\275\002\004\300\223\265\".q$\004\300\351)\320\205\234?\355?\333\362\343\300\343b\204\277\007P\323\006\350l\320?\234\260l:\377\315\007\300\204\222)\333\006\202\007\300)1\257L\013\002\340?\372:\373sE\321\204\277\300eJ-iy\325\277\032\252\336\206f\372\373\277\237\322\367\322\267\334\374\277@\371\372\211\377&\345?\010\356\317F\356\232\204\277PR\3267\234\256\301\2776N\031-\226\220\000\300P=~\006\267L\266\277!\2271\3671\362\343?*m\234M\330\321\204\277PR\3267\234\256\301\277\210\226C\035\354\375\001\300n\212\324sp\300\357\277\314 aa\327\367\347?i\254F\353\256\321\204\277\300eJ-iy\325\277\265\301C\362\207]\001\300\373\363F\350m\240\001\300\372P\250\314\304M\352?\311\001<P\355\321\204\277\300eJ-iy\325\277\235\312o\330(\377\352\277`mp\212t\223\355\2774\326r\014+\024\331?\031\344K\243\002\254\204\277\300eJ-iy\325\277\212Zp\236\205\350\350\277#\222\242_H\211\353\277\370\301\037I\337\'\354?%\236\264c0\315\204\277\300eJ-iy\325\277\226*\303\210\346\216\003\300\370\224\341\0178R\347?w\003\3539\205\352\347?\334\234O]0\321\204\277\300eJ-iy\325\277\3101C,+t\003\300\001U\357\003<\201\000\300-\347M\271\213\323\340?\343<\247_\224\321\204\277\347\202x\235\234)\353?\364C\230\213\252m\004\300\035Z\232\212x{\004\300\354\304d$A\343\347?G\024\223\262\221\341\203\277\300eJ-iy\325\277\027\267\230\303\364\301\002\300\260\365\177j\327\363\002\300&\035\233\037\"\333\345?\006\220\033o\346\321\204\277\237\2142\030\003\017\335?\324\2105\306\016E\366\277\025i2,\332Z\367\277\306\234W\022\027\200\337?A\r\263\267\310\321\204\277~\233\240\253gV\256?\210\226C\035\354\375\001\300n\212\324sp\300\357\277\237\214\253d4\374\350?\030\210n3\017\320\204\277\007P\323\006\350l\320?i\377\302\263J/\004\300\223\265\".q$\004\300\370\266%\237WL\341?e\362\331V5\312z\277\347\202x\235\234)\353?\263\2023\312\300\311\375\277R\tN\241\334\217\376\277<\333\351\2024\333\350?\177L\337>\210\244\204\277Q(P\270\263e\022@\354O\305o\362L\352\277L$\201\321e\345\354\277\235\226-\311\263\363\325?\323q\322\243\3750\233?\300eJ-iy\325\277%\264\201\231}\342\352?d.\031|\2249\351?\373\363\257\216\013\220\327?\3010XrbNu\277\300eJ-iy\325\277\230\254\327h\221\204\350?x\262\272\352\314\274\344?T\235\242(\300\263\322?\2629k@V\250\204\277PR\3267\234\256\301\277Cto.\361?\354\277\270\275\270=\302\314\356\277\360z\003\221\301\264\350?g+\330m\001\317\204\277PR\3267\234\256\301\277U\217\303y\247\030\002\300\213\304\272\317\322\003\367\277\027-T\367`\300\333?L\331\301\244\237\025\204\277\300eJ-iy\325\277\304U\303]\202\356\002\300\347\252W/_\362\000\300\006\251\314\240H\330\344?#)i>\367\305\204\277\007P\323\006\350l\320?\021l\227b\237\217\007\300\370\"\317\312\272\212\007\300\200P\000\303\357\255\356?\201\232\206\257\353\321\204\277\300eJ-iy\325\277\361\2604\235\003g\371\277N\256:\357|$\372\277}\225`}4Q\346?\017\370\304\006\351Ot\277\237\2142\030\003\017\335?\300/s\304\214\220s?\376\035K\034\237}\242\277f\225\327\351\205\232\344?\257g\361\241\236\364\261?\300eJ-iy\325\277\017e\223#\214\005\324\277\263\037\252m\347\370\331\277\366N\036\026\205\307\332?v\254l\036R\315\204\277\237\2142\030\003\017\335?\001\2645\233\252\244\365\277\351@\216R3\276\366\277\214\322F\221\221\363\356?X\2044\232\244\234\202\277PR\3267\234\256\301\277@\260B\255WU\005\300)\347\315uY\335\001\300mA\305<\343m\325?\302\366j_\005\321\204\277PR\3267\234\256\301\277z\254\355\224a&\004\300\341\374\352\356;:\364?gl\317\312(\266\306?\003\350\014\022\351\321\204\277\300eJ-iy\325\277\252\231j\232|\332\360?P\252w\r\\\266\355?\205\002\322\252\033\250\305?s\\r8\001\361v\277PR\3267\234\256\301\277p\007\201E\016d\355?xw\0105\243\347\351?\t\342R\207gG\334?wy\272\235\355\321\204\277\300eJ-iy\325\277\000\357\335\353m\261\376\277\037\265\036\370\"r\377\277N\236S8\247C\351?+\324$D\\\316\204\277~\233\240\253gV\256?\272\235\303\3000\343\001\300?\373\237\342\254+\002\300\244\362Z~`D\334?=\214\306k9\354\202\277\233\344\310\024\217\330\344?Dh\340\037\006\201\365\277\031\377\367\223c\233\366\277\344*\001H\215\260\341?\256\331\230\0350\265\204\277PR\3267\234\256\301\277\017\236\213#5|\363\277\\A\003D\314\373\361\277x\201@i\021\364\360?\254\202\336,\271\317\204\277\300eJ-iy\325\277\3021\341\001\210\224\362\277U\025xt\271z\363\277\371\333\227X\215\224\336?\333\271\027y\315/\204\277\300eJ-iy\325\277\205\003\340.E\367\366\277)\262!\345\350\010\370\2777|\001UW\223\336?\017X\014\273\314\226\203\277\300eJ-iy\325\277\241\236\223?\261/\323\277!\25107\033Z\360?\236\330g\371O\252\324?E\"\251Uk\371l\277\300\337k\327\333\345\363?wx\200d\220\344\307\277\311.\314\02196\265\277\024\010\004!\332\211\312?\377\225C\204\346\321\204\277\300eJ-iy\325\277\371\336\\\376\013H\267\277\371\314\227\373B4\310\277s\301\033\033a)\336?\353\374M\037.\317\204\277PR\3267\234\256\301\277P\315A,\216E\265?\260\352\357K\373\t\263?\203-:\243\250\375\334?F\315\221i%n|\277\007P\323\006\350l\320?ma\212\ti\024\370\277\300\262r\3026\320\321\2770\242\355\376F0\351?\031=\275\250\373\221\204\277PR\3267\234\256\301\277#\016\213]\330\222\365\277\001 Cs\313\254\366\277\274\\Kt\021\361\335?o2\223Gh\300\204\277\300eJ-iy\325\277\250v\340f\217K\365\277_\234\026\366+g\366\277:\351o\360H\247\324?\343cb\226\036\301\204\277\232\020\024\023U\275\360?\244\024\031\021qf\001\300p\204\354\327!\251\001\300\177 \345\367\204\242\345?O\376E\224\334\321\204\277PR\3267\234\256\301\277\356\275\356\331\221.\000\300\001U\357\003<\201\000\300\270W\376\332\027?\344?\322\335i\312\035\314\204\277~\233\240\253gV\256?\245\230\335A6\362\377\277\231\246l\003\245[\376\277s[\270\301\363\007\335?\310\361\210\035\234\321\204\277\300eJ-iy\325\277B\311\355\"t\273\003\300\2243A\275`\355\365?n\377\037\373\316\301\341?\313|W\364\0033\201\277\300eJ-iy\325\277\374\215n\276\\\227\357\277\246t\347\r\036\010\361\277\340\343\347!e\200\307?K\376\340\210\301\334\201\277~\233\240\253gV\256?\226+\033\261\363Y\350\277e+\035\262uF\317\277\203\223\235\374\025\037\336?vj\036\233\336\321\204\277\300eJ-iy\325\277;\325\032\007\274\232\351\277b\300:\324\202k\334\277\013E\252\317QY\332?s\\\377\031\233\313\204\277PR\3267\234\256\301\277k\031\306Qt`\347\277*\276-/[\n\352\277\254\004\022d\017=\306?\212i\343@\332\256\201\277PR\3267\234\256\301\277\201\366\303\307\023P\357\277\3252QON\345\360\2777m\003\242:\343\324?\2510\225\261\345\270\204\277\300eJ-iy\325\277\002\330\027\367\244\376\005\300\377NZ\232\315\013\006\300\252)\026z\327L\345?M\3119\002\306\270\204\277\300eJ-iy\325\277-\352lV$\370\006\300\265\033v\320{\377\006\300|\277\234\360w\351\341?\214O9p\360u\204\277PR\3267\234\256\301\277\236\371\210\032\001M\375\277\002,O\275=\256\350\277\254\303\230\247DN\356?\301\364o\327\325\321\204\277\232\020\024\023U\275\360?\363\231n\250:\264\000\300\026i\301p\217\317\000\300I\0008\023\035c\326?\t\221\233\321\334\267\204\277PR\3267\234\256\301\277\317V\337\332\325x\371\277\255*\016r\335\336\371\277\204\032\036n\321\233\336?\305\261\214\360\206\264\200\277\300\337k\327\333\345\363?\317V\337\332\325x\371\277\331R\262K\204{\372\277dv\032\253g\260\336?\001&\342\000\276p\204\277PR\3267\234\256\301\277P\nr\360\233\244\342\277n\0009\337\303j\345\277>\373Zc/\230\336?\351\203i-#\256\201\277PR\3267\234\256\301\277\340 \350\330\323?\326\277\366&\003h&\204\332\277\302\203-\320t\244\300?\340\207\322\010\274\240\204\277PR\3267\234\256\301\277\312\232\261\263S\202\271\277\200\333I\360\300J\311\277\315\225\371\361\241\306\307?Zh\275\316a\320\204\277PR\3267\234\256\301\277\203\264\260C\277\331\274\277\020\273T0l\027\364?`\210\355O\3324\342?B\336D\325r\321\204\277\300eJ-iy\325\277\353*\213\353\352\'\365\277\216Z\2007\\D\366\277\210t\'\246\"j\315?\335\\\376\332\337\320\204\277PR\3267\234\256\301\277r\r\231m,\201\001\300\3145\335\246=\303\001\300\303\314\246\317\314E\324?|\240\242\212TX\204\2772Ms$p_\375?S\246\211np\313\372\277\325\274\354\343\372:\373\277\345\257rxk\324\347?\267\003\265p\323\354\203\277~\233\240\253gV\256?@\260B\255WU\005\300#\301H\313\377\\\364\277\326`m\377\334\206\351?\335Q\351\352&\321\204\277\300eJ-iy\325\277\032zm\034\201\341\004\300\354\320M\225\003\376\004\300\320\262A\266\376S\333?\\\'\ne\231\321\204\277\300eJ-iy\325\277\034\223\030\222\235G\003\300\177l3ubv\003\300Zb\256\326\205,\367?\354\\?\353\357\320\204\277\300eJ-iy\325\277\343\226m\252\223v\004\300z\013\213Y\224\225\004\300\2749\316\202\223$\345?\354\316\032\317\364\316\204\277\300eJ-iy\325\277k\030n)g\225\002\300\337\263\351\253\007\321\002\300-\221\330PN+u\277]\237o\300\256\'m\277\237\2142\030\003\017\335?\246g\024\257C\016\364?\244!\035\304\0170\362?\231\335\333\262\237!\263?\222V3b\214b\204\277\300eJ-iy\325\277Y\373i\215\226&\363?\036\023k\317\221\031\361?\312\354\222%*0\337?\346\010\362E\314]o\277~\233\240\253gV\256?Cs\027\006\344t\007\300V\237\242M\033E\007\300\231j\260\315\371\270\343?\375\375Ak\343\321\204\277\300eJ-iy\325\277\277S\336\334.;\375\277\367\"@\206\005\026\376\277\236\277\t\305b\024\312?$m\321\326.\317\204\277\300eJ-iy\325\277\367\3735\376X\231\364\277KS\'=\035\271\365\277\275\271`\275\345\316\317?\213\343\226\236r\320\204\277\300eJ-iy\325\277j\364\213\315l;\362\277m\364,\225Qi\363\277\033U|Q3\016\320?d\213\016^\262\266\204\277~\233\240\253gV\256?\21156\032~\303\363\277\225\206\013\007o\305\364\277 \231\221\320ac\335?\253\361\203\227Q\305\204\277\300eJ-iy\325\277F\201\213\225\"\347\363\2777\n8\204\016\013\365\277b\222\352)\274Y\344?\230\362\007\247\t\321\204\277PR\3267\234\256\301\277\tS\212\302\337I\370\277i#\265w\236S\371\277i\241\311\213\037;\353?\203\374\t\230\300\321\204\277\300eJ-iy\325\277v%\031\265\245\336\357\277w\266}\314\355*\361\277\213\253\357H\312Z\265?(7\367f\247o\203\277\300eJ-iy\325\277V\204\214\223\311$\360\277\336\222\317(K\332\303\277\365\214n\266\261\206\320?b\203\325\320\3726\204\277\300eJ-iy\325\277\035\210\341\253\277S\361\277\316\006\306\177;d\362\277\333\265\017%\017\306\330?Z\360\355(\306\315\203\277~\233\240\253gV\256?)Y\214\276-\305\360\277s \270dd\352\361\277\360\253R\260\022t\317?\235\242\255F\257\244\203\277\300eJ-iy\325\277J\263\341\200[\263\360\277\3252QON\345\360\277%%\305\024\373\225\317?\350\334\347\315i\357\177\277\300eJ-iy\325\277\272\236\033\351=\256\346\277\026u>vL\\\351\277Du6\262\007)\246?v\312a\360\215\232\204\277PR\3267\234\256\301\277\264I;\312\027S\336\277\010\223\214Bz\004\342\277\255\305\r\"\006\253\320?\321\177\267\220g\321\204\277\300eJ-iy\325\277\365|)\227\325\004\316\277T\336\210\240\260\023\325\277\254\224\340\345c\375\325?\360 \345^\230\366\203\277\300eJ-iy\325\277{\032?\334\320K\277?b\267\224{W\226\223?\263\327\370\224\354\233\332?\215Rs=r\321\204\277PR\3267\234\256\301\277w\352pd\342\321\346\277\347\266\3244\034\177\351\277\305Z\314I(\261\341?\262\350\343xV\314\204\277PR\3267\234\256\301\277)Y\214\276-\305\360\277\\A\003D\314\373\361\277h\341y\005|k\332?B\2315\307\250\321\204\277\300eJ-iy\325\277a`n\214\025\212\001\300A\306\202\226\361\313\001\300!^b\342I\237\323?\343@Vj\306\356\203\277\300eJ-iy\325\277\243\245\227~\304\271\006\300\207(\357B\220\302\006\300E,\003\0254s\356?\255\023\031\327\005\311\204\277~\233\240\253gV\256?n\333B\202\363\264\004\3003nl\367\313\311\004\300F\006\345#\253\214\347?]\234jqq\002~\277~\233\240\253gV\256?Q]m\216nL\005\300_\226\020\321rf\005\300\364\345b\353\325o\344?T7\347\027\325\316\204\277PR\3267\234\256\301\277#\210C\326b3\002\300\341~\314_Lq\002\300\377\256\376;t\324\340?Bc\324\010\342\321\204\277\300eJ-iy\325\277&K\030/\357R\004\300G\362\rf\004M\000\300C,\035\216YP\344?X\006\261\217U\276\204\277\345\256\303\233b\016\367?0\003\030\314@^\005\300\325\361\230tk\017\005\300\230{\275\301\363\301\347?\037\354\232\201C\310\204\277~\233\240\253gV\256?].\030\241\334\275\004\300\034\217\267\3263\333\004\300t|\325\331Ac\334?M\266\001j\322\260\204\277\014~\033`\3516\372?\026H\0271H\025\010\300\276S\234.\266\366\360\277\231\3473e\323\020\342?4\202\336\0249\321\204\277\300eJ-iy\325\277\206W3\365$j\376\277fR=Z\353=\377\277\030_~\003\251$\337?\211\t\357iF\321\204\277~\233\240\253gV\256?_w4\201\336<\372\277\325\274\354\343\372:\373\277y\030bp\370\313\322?\030+\374\245\265\342\203\2772Ms$p_\375?\027=\340Jj!\366\277KS\'=\035\271\365\277\026\005A> ^\320?\245\357\007xZ\321\204\277\300eJ-iy\325\277J\263\341\200[\263\360\277s \270dd\352\361\277\377w$\357C\375\324?V\232\026h\343\321\204\277\300eJ-iy\325\277\215g\214\005\267\217\360\277\243\336!\246\224\307\361\277\037\202\213\013\033\n\326?\320Z$\'\033\312\204\277\300eJ-iy\325\277\024\365\033\223um\345\277\276$\366\302\376\"\350\277t\364W\230\340/\323?\231\315\227\204*\320\204\277\372\241AT&\025\033@\004\224\350\020\036\224\324\277\2502v\254\264\321\317\277\022>\025+\234\242\355?\014\226\226\341\352\321\204\277\300eJ-iy\325\277s}r(\346\370\340\277\243\352-\360\006\311\343\277Uii\333\232\366\324?\230\034j\207\264\216\200\2772Ms$p_\375?s}r(\346\370\340\277\230o}/\234\364\337\277\030\250w\265\n\247\340?)\303o\243\010\354*?\300\337k\327\333\345\363?s}r(\346\370\340\277\323\250\22717\246\343\277z\356\366G\021-\304?;\311s\027\224iv\277\234\373l\301\217\275\t@l\247\325Q\"s\310\277R3j\023qz\270?\204\013 \273\264\353\324?\230\002\315&O\321\204\277\300eJ-iy\325\277\335\021\034!\210\002\345\277L_3\207\217\272\347\2773$m\227\307!\342?\351\315\273\205\350k\202\277\277u\221\326>\330\001@\333\'\212\355C\352\370\277\255*\016r\335\336\371\277\222\317\240\271\362\347\323?>o\030\006\n\230\204\277\300eJ-iy\325\277\353*\213\353\352\'\365\2773tr\034\205\312\365\277\352\003\262\224\023Y\346?/\221\352\306\354\321\204\277\300eJ-iy\325\277\322?\031\346\014\306\000\300D\\H\376z\014\001\300\327L\277\013\330c\327?\237+\327S\311\313\204\277\300eJ-iy\325\277\227\324\354kVH\007\300\313/H=\317M\007\300t\323:\200\222\324\323?\025\233\000\232\222\316\204\277\237\2142\030\003\017\335?\325\254\027\"\t\237\006\300+w\376st\250\006\300\217\323>\211\243\270\352?$K7G\r\321\204\277\300eJ-iy\325\277)\016\355\207{r\006\300q\024\035\326<t\006\300Y;\276MJ\224\345?\311\352\313\270\353\321\204\277\300eJ-iy\325\277;\324\302\336\256\317\004\300\004\260\002\266\233\354\004\300r\252\025V\032\320\326?\007lV:\263\321\204\277\347\202x\235\234)\353?\210\226C\035\354\375\001\300\233\254\220\261\310E\002\300\252\330\303\035\371\010\347?\250+\037\250a\313\204\277\300eJ-iy\325\277\345\257\030 \260\334\002\300\2017\026)\247\026\003\300\333>V\251\336\267\312?\253l\237`\347\321\204\277\300eJ-iy\325\2776N\031-\226\220\000\300\377\211\014P\367\340\000\300\227r\332\302\322s\315?\234_\\\324\333\321\204\277\300eJ-iy\325\277\370u\356v\3439\001\300\025\236\336\274J/\001\3006{\236K\315\330\355?K\240\307M\350\321\204\277\300eJ-iy\325\2771r\231^\355\n\000\3000\023YEl^\000\300s \211\323\333C\323?\'\204\357\252\200\321\204\277PR\3267\234\256\301\277\001\2645\233\252\244\365\277\351@\216R3\276\366\277\3368!|\275x\345?\023\202.\2108\312\204\277\300eJ-iy\325\277%\'6\323\364\370\363\277\037+\203cv\034\365\277\rn\317\371\311]\327?\207)\007u\337g\204\277\237\2142\030\003\017\335?H\2326\013?M\362\277\267\'\021_\243u\362\277\\\205\000\220\020\364\341?\225?\313\0328\233\204\277PR\3267\234\256\301\277\034\303\211\374\202`\372\277z\326\336\310#\301\372\277\276\302C\274\006\035\352?\331\n]g\334\221\204\277\300eJ-iy\325\277w\352pd\342\321\346\277\347\266\3244\034\177\351\277=\262\341c\327\366\312?\304\263\255\367\222\321\204\277PR\3267\234\256\301\277G\246\305\031*\014\351\277\364\3238\036\030\254\353\2776\356\212B\251\017\322?\241P\332\372\351\234\204\277PR\3267\234\256\301\277G\246\305\031*\014\351\277\364\3238\036\030\254\353\277$/%\226\313{\320?C\022\304,j\321\204\277\300eJ-iy\325\277[\026\305S\315\"\353\2771\257\006ID\266\355\277\254\234\350\367\215\246\323?\350O^\323B\311\204\277\300eJ-iy\325\277>B\031C\270s\357\277\276S\234.\266\366\360\277\030\202\252\\\324\330\330?\275\0015\215}\311\204\277~\233\240\253gV\256?Tk\341\035\255\276\361\277\022\016\037zz\357\362\277Q\206\366P\020f\374?\351\t\316\335\233\"\202\277~\233\240\253gV\256?\275\013\032%:\207\354\277t\266_C\203A\356\277(\255W\367\355\264\301?\220\320i\257qX~\277\300eJ-iy\325\277\006E\202D\2715\301\277\233\025\022\303\270\244\315\277\325\010v\232^T\336?\230.^\013M\306\204\277\300eJ-iy\325\277\016It#0\340\301?\347\317Zc\033\177\242?\202\323\263\257VS\305?\356\3419iK-t\277~\233\240\253gV\256?\245\240\014\257\354\204\323?\272fI\233\375o\326?\367CcZ\307\035\273?k\350\267\203\260Zy?PR\3267\234\256\301\277\353c\203\353\223\236\344?\023E\016N\203V\341?\214\225\"\333\301\263\340?\344\230\234\016\343\316\204\277\300eJ-iy\325\277s}r(\346\370\340\2771%k\264\227`\343\277\320;\210:\316E\315?\233g\0368\341\321\204\277\300eJ-iy\325\277\325\255oJ\026j\353\277\32323\306\343\373\355\2776\377\2276\243\030\326?)\363\235bx\302\204\277PR\3267\234\256\301\277\013l58\374\257\366\277\002\n#6\023\331\246?G\224\333\350b\361\321?\177\323\216b7\025\203\277\300\337k\327\333\345\363?\342r\213N\231\034\364\277\360l\031\"F?\365\277o\353(\331\000\273\306?w0\310\265`M\204\277PR\3267\234\256\301\277\253\217\213\334\253\261\363\277~\247V\346\326\326\364\277h\341y\005|k\332?\212d\344\254\306\321\204\277\300eJ-iy\325\277\341\2553\237\\)\375\277\017\002\365\246\235\004\376\277\372[\331\372\214&\312?\235b\367$D\321\204\277\300eJ-iy\325\277\301\222\356\004\366\316\000\300\270\354\355\355.\025\001\300r]\307\002\321`\327?d\222\271\222\317\321\204\277\300eJ-iy\325\277\203\272\303NCx\001\300X\2457\267\211\272\001\300\3772\336\255$7\323?\226\260\034[\214\307\204\277\347\202x\235\234)\353?z\254\355\224a&\004\300\020\'\207\037\017\006\251?\333O\254\313\241\244\327?>\373\032b\333\267\204\277\300eJ-iy\325\277%\'6\323\364\370\363\277\037+\203cv\034\365\277\3263\252\005\264\261\325?&\302\311\252\021\317\204\277\300eJ-iy\325\277\347\3704\000\262[\370\277\260\300\323\331f\037\371\277\334U\245\234\356\364\332?\343D\216\264]\031q\277\233\344\310\024\217\330\344?\272\236\033\351=\256\346\277\026u>vL\\\351\277\210QD{\300\231\334?\262\365\340\300\353\321\204\277\300eJ-iy\325\277\035\210\341\253\277S\361\277\237H\\>\013\207\362\277\027?\314\303\201z\262?\344!\364(\352\317\204\277~\233\240\253gV\256?\026?\220\233\204\267\337\277\035\334{\373\210\262\342\277\260\3750\377\232_\327?VN\331\3342\306\204\277~\233\240\253gV\256?Z\270\222\317\034\207\326\277b\300:\324\202k\334\277\225\226\003\354\243\336\317?\315\361\276Z\232\232\204\277\300eJ-iy\325\277h\332\034\036+\254\311?\331A\034\010\357\220\271?T\373\264A:H\315?\331\234\247\252\320\310~\277\300eJ-iy\325\277\312\232\261\263S\202\271\277\200\333I\360\300J\311\277\350\335=\243\314\231\277?\257\021\262\347?7\235?\300eJ-iy\325\277g\036\270\025\312t\320?\344\020@\241\377\316\353?\367`\364L\355\216\307?HZ\030\223\354\321\204\277\300eJ-iy\325\277\311\332\024\347\215b\362?!\25107\033Z\360?^\000\222\361\'\023\305?\036:R#\024\314\204\277PR\3267\234\256\301\277l\247\325Q\"s\310\277!$\304\2676\273\316\277\301\243\201\245TA\327?28\342\363\247\321\204\277\007P\323\006\350l\320?D9\307\335-3\343\277\256&K\220\274p\355?\000T\373\305r\222\322?\004+\303Q\332\321\204\277~\233\240\253gV\256?5*7\321\2336\360\277\362\205\370\315,\275\273\277O\002\337\324w\t\305?\270>b\201\'f\204\277PR\3267\234\256\301\277oK\034=\255,\344\277g\324\255\017\261\351\346\277\362\272H\371\245\357\342?@J\335\031\306\257\204\277\302\312\304\205\026\346\014@y25\034\327\205\367\277m\271z\337\'\224\370\277\354w\026\321\367s\350?FOd`\334\254\204\277PR\3267\234\256\301\277\317V\337\332\325x\371\277\331R\262K\204{\372\277Uii\333\232\366\324?\027\310\353)\352@\203\277\300eJ-iy\325\277\022\013\212_1U\371\277\010\021\034\215\264X\372\277{\351\276\352\225\244\347?\357\013P\232\330\321\204\277\300eJ-iy\325\277\001\2645\233\252\244\365\277\351@\216R3\276\366\277\307_\031\343!c\333?ll\356@\335\321\204\277\300eJ-iy\325\277\212Y\030vx\035\004\300\026i\301p\217\317\000\300n\262\321\247\205R\342?9\2179\221!\305\204\277PR\3267\234\256\301\277f<\356Z\276\017\002\300\204\315\333\2200W\002\300\235\204\275\313/0\341?#\r\t\000\316\320\204\277\007P\323\006\350l\320?E\342\230\230\220!\002\300\270\354\355\355.\025\001\300\255\362\320\033/\200\344?\303\'\342\355\020\320\203\277\300eJ-iy\325\277;\324\302\336\256\317\004\300\004\260\002\266\233\354\004\300\271\273R\363\247\007\353?W\264\000f\314\306\204\277R]\2758\202l\003@\245\276B\364\340\037\005\300\325\361\230tk\017\005\300\333\256\231\321\022\336\356?r\337\036\032\336\321\204\277~\233\240\253gV\256?\306nn\323\236T\001\300\266!\013:\352t\001\300\000e\277\213\243\267\315?\300\237\274\221\r\312\204\277PR\3267\234\256\301\277\326\033\231\264\265K\001\300\023\323\373\010\006\217\001\300\336L\240\272\036\225\324?\376\343\323\215B\316\204\277\013\024A_L)\010@/Y\356\350\320\244\001\300\265V(\206\245\324\001\300I7\022`M:\342?4\306\326\362\300\320\204\277\300eJ-iy\325\2779\353\210\323w\202\375\277\177\336E\272\337=\343?\254GIdQ\252\315?q/\216\263\217\317\204\277\300eJ-iy\325\277s\3473\273\201S\374\277\255*\016r\335\336\371\277\251\302 b<j\320?}lU\020\264\315\204\277PR\3267\234\256\301\277L\327\303\334U\r\001\300\346\337t{\032R\001\300t\363\364\216Vu\342?\207N\"\366\361\320\204\277\300eJ-iy\325\277Sv\030\004\213\262\003\300}\241P\301\035\326\003\300\340\345\366bB\331\301?\227\002|\232\023\315\204\277\007P\323\006\350l\320?\260\0255\216\304\360\367\277\337~=\033\227\374\370\277\001\235\204\376\360^\276?\226G\261\342\313\321\204\277\300eJ-iy\325\277\201\366\303\307\023P\357\277\3252QON\345\360\277\0365\226\037\301\251\267?\331t(\274\016\302\202\277\300eJ-iy\325\277Cto.\361?\354\277\270\275\270=\302\314\356\277\230\263\372\027\256S\344?\313\023\264w\246\321\204\277~\233\240\253gV\256?.\341\345\300`\232\336\277\344h\224\3440\220\271\277\353DZ\006\202N\321?\274\3634}\307\321\204\277Q(P\270\263e\022@\030\360)\317\037Y\314\277\315\317\326\2532\375\323\277\204@\353\306\007j\346?\375\r\306\026\347\321\204\277\345D\351\232\305\000\005@\215\376\266\211\020\242\324?a\032\304\311\320\244\361?\242\253\360\277\345\373\302?(\3647\370\344\316\204\277PR\3267\234\256\301\277\3471-\000[\322\347?di\3131\276\016\344?R\271z\021\236\221\316?\005\025D\362\353\272\204\277PR\3267\234\256\301\277\225\315\350,C\276\323\277s\271[\r\2424\310?s;d\354\023k\306?\322\236N,\343\277\203\277\300eJ-iy\325\277\225\315\350,C\276\323\277\021\234}\360G\263\331\277\320\333\277Gfg\271?#}\'Yk\321\204\277\300eJ-iy\325\277p\t\t\271X\266\261\277\250\250\332\027\010|\305\277\n\331M\245\227\347\325?\312{\027x^\266\204\277\232\020\024\023U\275\360?\332\242\225qA\327\272?\347\317Zc\033\177\242?\265dr\327\364h\336?c\332\002\014\355\321\204\277\300eJ-iy\325\277)Y\214\276-\305\360\277\\A\003D\314\373\361\277\270\342\2448\027\242\317?\323N\225p\t\317\204\277,\216et\373C\000@~\211\305\213\027w\351\277g\231\373Y\207\024\354\277\177rk\250I\232\301?\331\252\002\217\036\230\204\277\007P\323\006\350l\320?\322o\212P\362\336\367\277\367]\362;/\353\370\277a\024.;\244O\263?\367\027\317O\346\321\204\277\234\373l\301\217\275\t@\232\214\212\336\004t\367\277\204\230/\000\300\202\370\277\3067\006*\341\000\320?D\214t\003\350\321\204\277\300eJ-iy\325\277\225\006\341,\3544\363\277#\301H\313\377\\\364\277n\235\021CI\215\336?H\315M6(\272\204\277\300eJ-iy\325\277Sv\030\004\213\262\003\300}\241P\301\035\326\003\300em\025\311\227P\330?\214\314k\364\253\321\204\277\300eJ-iy\325\277\2619\027\352\276J\010\300\310d\326D\3258\376\277\r\252\020Y\031\304\322?\336\354\261^\304R\204\277PR\3267\234\256\301\277\263\2023\312\300\311\375\277K\216\331\362F\216\360\277`\226YD\311#\330?GX~\014\331\321\204\277\300eJ-iy\325\277\347\310\303\225\314B\001\300\237BV\031R\206\001\300g\025\263R\241(\330?\374e\267\235\342\321\204\277\300eJ-iy\325\277\320\320\227S`\031\006\300\\\000Ki\351%\006\300\306W\r\034\263\237\362?\241b5\261\302\223\203\277\300\337k\327\333\345\363?~\210mc\n\254\004\300\276\3357\303bL\373\277\n\300\357p\252Q\313?;N\342\224\224\246\204\277PR\3267\234\256\301\277U\217\303y\247\030\002\300\243\336!\246\224\307\361\277\022\337\'%+i\326?zV\3070\232\307\204\277\300eJ-iy\325\2779\021\356\205\"\260\002\300;e\332z#\353\002\300\347$\223%\311\270\273?\216y\277\232\367y\204\277\347\202x\235\234)\353?H\2326\013?M\362\277\034\320o\261\026\261\360\277\3512\224\010@\262\274?nz\320\337\305\317\204\277PR\3267\234\256\301\277\276\377\212\026O\310\365\277\001 Cs\313\254\366\277\356\r\025\250\331\201\320?\332\354\301+\"\273\204\277\233\344\310\024\217\330\344?\326\241\340;+\253\364\277\301\256\257\340\025b\365\277f\366[MgB\312?\244+ZG#\241\204\277\233\344\310\024\217\330\344?I\356\211\321\036\300\371\277z\326\336\310#\301\372\277\206\006^\320C\222\270?\362\3313-\311\351{\277\300eJ-iy\325\277\207\355qb\211\017\343\277\340\305\373\0323\323\345\277\032\234\210\245fI\303?\333\301G\233j}\204\277\007P\323\006\350l\320?\031\'r~\2569\342\277\371\333\237\017\324(\364?H\316\r\007\325\376\322?\263\356~\r*\302\204\277\300eJ-iy\325\277\327\274;\002b\247\334\277\256\364\003?A\334\260\277\315\246\006\346\233\317\313?\226\375\306\370pR\204\277\300eJ-iy\325\277\0336>6\372v\323\277o\030Qs\250m\331\277\024\326\331\024\222%\307?t\350bmE\305\320?\300eJ-iy\325\277\241\236\223?\261/\323\277!\25107\033Z\360?\\\253\355Z\223\030\252?\207D\305\255R\316\204\277\233\344\310\024\217\330\344?\2763\207\030n-\255?\250\267\342+\231p\361?\0234~\212\236\201\323?\"gD\216\247\265\201\277\300eJ-iy\325\2774e\337!_C\371\277\037\360\320\255LG\372\277\277\225\200\302\335G\326??-\251\371\351\321\204\277PR\3267\234\256\301\277\214\2424Vz\234\371\277\260\352\357K\373\t\263?\036a%\305\003\313\315?~\"%\235@\312\204\277\233\344\310\024\217\330\344? \365\337\347\273,\367\277\343\024\003\203 =\370\277k\315\027\3225o\312?\232\215\364\233\226\244\204\277\300\337k\327\333\345\363?oz5\177\205z\366\277\316\313\023\312\021\217\367\277|Y9\227\n\310\340?)7\326W\233\266\204\277\300\337k\327\333\345\363?N \340\274W\214\366\277\267\354^\251y\240\367\277G\245\350\334\\\372\325?\316t\224\207\215\223\203\277\300eJ-iy\325\277\262.\340\003\341V\366\277\376\211}\013Bl\367\277-\374^\266\032\261\343?[\301\034\244\307\321\204\277\300eJ-iy\325\277\353*\213\353\352\'\365\277\216Z\2007\\D\366\277n\3745\315\372\303\312?\001\010X\272\272\027\204\277~\233\240\253gV\256?\003\315\340\020\307\n\364\277\010L\316B\336-\365\277\355HD\226\361E\332?\361(\226\204c\026\201\277PR\3267\234\256\301\277\317&np\360_\002\300&Q\010\016\320\234\002\300\342hYRC\244\315?\2450\014\3636\313\204\277\300eJ-iy\325\277a`n\214\025\212\001\300A\306\202\226\361\313\001\300\307\002j\3231\211\341?\257\310\300\243\002\321\204\277\300eJ-iy\325\277\210\226C\035\354\375\001\300\233\254\220\261\310E\002\300\3067\006*\341\000\320?+\236u\023\355\321\204\277\300eJ-iy\325\277\301\222\356\004\366\316\000\300\270\354\355\355.\025\001\300\221\321f\314\006]\305?3\321\3612@\303f\277\233\344\310\024\217\330\344?\272\236\033\351=\256\346\277\026u>vL\\\351\277yDJ}*\374\311?\234\200\261\356\354\321\204\277\300eJ-iy\325\277\305o\306\373\253\037\346\277e\241\201\035\311\360\304\277\350.\010\343\027\310\311?\374 \277\245\237\351\201\277PR\3267\234\256\301\277\010$q\200\007\374\345\277\202I(\230\322\030\346\277-\221\330PN+u\277z\231\305\024\321Y\204\277\233\344\310\024\217\330\344?\024.\024\223\036\344\364?\241\213W\\\206\357\362?V\222\216\005\023\373\321?\206c\211S\006\352q\277R]\2758\202l\003@\035\210\341\253\277S\361\277\237H\\>\013\207\362\277\203&D\002\266\366\320?(\241\354z\356\243\204\277\300eJ-iy\325\277\021\2676\231Q\342\361\277\343O\2658J\022\363\277\013Gp\342e\316\313?<$\206\001\350\314\204\277\300eJ-iy\325\277\333\367\030\203^\321\001\300V\332T\003E\032\002\300\261R\207d\016x\324?\250\"^R\033\321\204\277PR\3267\234\256\301\277\203\272\303NCx\001\300X\2457\267\211\272\001\3008\226(\314\262\347\321?8\3171\333v\321\204\277\300eJ-iy\325\277&K\030/\357R\004\300\251\311\364\232\304r\004\300\037\340\346R^\202\331?\362\000\377\355<\314\204\277\300eJ-iy\325\277\203d\3551\2631\005\300\002\345\037\002WL\005\3009\025\241+D\273\324?\020hx\004\313\331\203\277\300eJ-iy\325\277\225\006\341,\3544\363\277\340\000\256\320\\\250\340\277\177\230\270Nv\207\333?\200\210h}\324\321\204\277\300eJ-iy\325\277{K\340\221\363\353\365\277\213\304\272\317\322\003\367\277\220\215\035[\215M\314?\000\260\224\365hU\204\277\345\256\303\233b\016\367?oz5\177\205z\366\277-H\347LrI\367\277\333\203\234\352\375}\314?J[p\034I\311\204\277PR\3267\234\256\301\277(\2244\017\361\321\371\277\262Z\\#\021\316\324\277\201\374\273\316\2637\343?\320\025\r\016q\321\204\277PR\3267\234\256\301\277\312\232\261\263S\202\271\277\200\333I\360\300J\311\277#\240S\344\034r\311?3\321N++\273v\277~\233\240\253gV\256?\342<\007\331/e\270\277/\267\214\014\206\222\306\277\276\016\000Q\"\313\325?[\300\270\275)\305\204\277~\233\240\253gV\256?p\t\t\271X\266\261\277\206\026\335\323d\300\363?\020Z\266\364LE\320?\342\321\010\261\257\316\204\277\300eJ-iy\325\277&\353\311H\014\303\300?\'\216\375\006\222\004\342?\360E\357V\245R\316?6\327\365\222\022\257~\277\300eJ-iy\325\277\366\246\036\376S\375\302?\002\n#6\023\331\246?\2358\211S\247\227\311?b\370\241\237\010\014\316?\300eJ-iy\325\277\017e\223#\214\005\324\277!\25107\033Z\360?\203\327?\325~=\270?&\200+\371\350\321\204\277~\233\240\253gV\256?H4\325\031\330\036\312\277\267\300\264\007\341\277\310?r/\340\355\347\002\276?\334\303\207K\361\317\204\277\234\373l\301\217\275\t@ma\212\ti\024\370\277\267\354^\251y\240\367\277}\311\231\312Y\016\344?]\264\366\251\352\321\204\277~\233\240\253gV\256?ma\212\ti\024\370\277\337~=\033\227\374\370\277\203\235\264O\035!\326?\'\360\342\3445\304\204\277PR\3267\234\256\301\277\324\2105\306\016E\366\277\001[\365(\365\201\361\277\235I\337uj\204\326?a\202I\2667|\203\277PR\3267\234\256\301\277t\254\213j\276F\363\2772\\Z\210\240\307\361?\235\341l\333\037\n\333?|\251\340t\'\306\204\277\300eJ-iy\325\277\342r\213N\231\034\364\277\360l\031\"F?\365\277\277\225\200\302\335G\326?\002p\270\340\275\317\204\277\300eJ-iy\325\277F\201\213\225\"\347\363\2777\n8\204\016\013\365\277\324\330Z\317\363H\325?\356\314_\204\030\262\204\277PR\3267\234\256\301\277\353*\213\353\352\'\365\277\216Z\2007\\D\366\277\240\317\031\351\266f\305?\013TA\004\255\234\177\277PR\3267\234\256\301\277\031V\213\300\206\207\364\277c2\334]\265\247\365\277\024X<\242\367\366\340?\344\301=\203v\321\204\277\300eJ-iy\325\277J\276\030g9\247\002\300\267\354^\251y\240\367\277\203\340\353O_\216\335?.~\307\225\200\321\204\277\300eJ-iy\325\277\253\tDU6R\000\300\321\226\205\302\013\244\000\300w\361K\207] \320?\023\377\220\321X\273\204\277\300eJ-iy\325\277\256\315p\326\317<\347\277Y|\227p\213\347\351\277>\302\361\207+I\306?h\375\327\226\374\306\204\277\300eJ-iy\325\277\242\374\305\303a\313\347\277\'uw\330\222\004\251\277\370\326g\312\256\002\304?P\n\327\316\354\321\204\277\300eJ-iy\325\277#3\305\341\337\267\352\277d.\031|\2249\351?\017\356\020\234\311\357\302?A\264\346\352OX\203\277\233\344\310\024\217\330\344?\250\257\330f8\302\344?q\301\341\320\343\020\341?1\231\350\034w\320\342?6\234\377\003p\310\204\277PR\3267\234\256\301\277\245\240\014\257\354\204\323?\372\307\r\002 K\311?%\256T\307\223k\312?zl\030\214\037\263\204\277~\233\240\253gV\256?:G\013\007\016\210\330?B\215\023$`\211\353?m\017R\002\322%\311?\033\370J!|\262\204\277\237\2142\030\003\017\335?\200\n\202C\265\241\351?\317\002\003\236\032\366\345?-\371t\210F\263\314?\377\262\346\372\2569\200\277\007P\323\006\350l\320?\020\030D\234\277\034\000\300\0304\244$\324o\000\300\356\204\205\365@\254\325?\003\205\226?\245\321\204\277\300eJ-iy\325\277\326\033\231\264\265K\001\300\023\323\373\010\006\217\001\300\304:\311\014\233,\312?\225C\234J\307)\204\277\007P\323\006\350l\320?@\006\031\312\347\233\001\300\231\341\036\271\3160\371\277\226\236T,\227k\326?\253\220Bs\313\262\204\277PR\3267\234\256\301\277\3666\336N\034\246\375\277i\350\002\302t~\376\277/\007vk\275\254\315?\331\240\005K\351\321\204\277\300eJ-iy\325\277\3666\336N\034\246\375\277\201\307\267\342\014m\376\277\215\272\224\224\367\373\335?\202)\024\207\312\321\204\277\300eJ-iy\325\277>\355mT\3135\003\300\226K\350\225\372d\003\300\0030\211n\330C\307?\2541l\220\312\215\204\277\300eJ-iy\325\277\037V\355\352)g\005\300\274G\001\240\216\200\005\300C\207\327\325\221\256\331?_qR\177\337\321\204\277\300eJ-iy\325\277\346YB\003 \226\006\300\266\346X\204\300\237\006\300\331\311\327\2219\306\340?\331\214;E\312\321\204\277\237\2142\030\003\017\335?\332\210\227\360\261$\007\300\206]\014\217K\"\007\300v\341;c\t\316\324?\016\002d\203\353\321\204\277PR\3267\234\256\301\277\330\272\213\261G\021\363\277R\177\262\0140:\364\277\363B\343E\"C\313?d\210\362\200\215\313\204\277\300eJ-iy\325\277\027=\340Jj!\366\277D\'\234m\n8\367\277,\307\223\252\3072\322?t\236?\344:\321\204\277PR\3267\234\256\301\2776~\212\227{\251\367\277\210.\365gI\303\367\277&\034\ta\364\031\322?j7\302\340\014\303\204\277\255\003\222\313\030\304\024@\317V\337\332\325x\371\277\331R\262K\204{\372\277\275D\377\260[\375\304?I\245\250\330\177\032\251?\300eJ-iy\325\277:\262\220\323\316\013\336\277!\25107\033Z\360?\n\343\033\312\325\005\305?\006\300\313\323\313\321\204\277\300eJ-iy\325\277\366\246\036\376S\375\302?\002\n#6\023\331\246?\343\254\242\303\274\263\306?c\340q\327 \364\203\277\300\337k\327\333\345\363?\002x\311\020\302n\302?\365\354\276L\027\254\244?\235\210\301\324\304\004\340?\301\336\303j\347\321\204\277\300eJ-iy\325\277\216\357\333\315\265g\257?\014;\257\005\233\252\244\277a\332Y\207yO\310?\227,<\251\351\321\204\277\300eJ-iy\325\277\266\231\025\261\177\237\237?O\314\243\224\206\213\257\277\000\274$2\364(\305?\216\373E\341\211\321\204\277\007P\323\006\350l\320??\233h\007\"\370\256\277\206\026\335\323d\300\363?\313\334Nt\236\345\303?\314I\035)p\300\212?~\233\240\253gV\256?\312\232\261\263S\202\271\277/\267\214\014\206\222\306\277\224\230[[J\033\323?S\276\250\340\310\320\204\277PR\3267\234\256\301\277\264I;\312\027S\336\277\245=\3709\025\241\322\277\213\013\270;29\311?e\262\3073\324\032u\277\300eJ-iy\325\277\212\374=\032\325L\324\277\344\020@\241\377\316\353?6;\331\225\362~\321?nN-k\272\321\204\277\300eJ-iy\325\277\017e\223#\214\005\324\277\350\t\237~*W\330\277\264<_\036\264\006\323?\335\331\223n\327D\202\277\300eJ-iy\325\277\354\361\222\353A\261\325\277}5\265\\\244\232\333\277\264\263\317k\0331\330?\360\020\254\3673\233p?\300eJ-iy\325\277\0336>6\372v\323\277!\25107\033Z\360?\316\357\177\345\363p\337?\2632\320@\016\321\204\277\300eJ-iy\325\277\022\013\212_1U\371\277\010\021\034\215\264X\372\277\327\"T\343\360\304\310?\307w!\307\037\301\204\277\300eJ-iy\325\277,\306\212\372)\236\366\277\237\r\252\210\341\261\367\277\2108/u\234\347\332?_O\003\213\354\321\204\277\300eJ-iy\325\277\316\002\214\024\366\005\362\277\263\221K\367\0315\363\277>\373Zc/\230\336?\177%\006\366P\304\204\277PR\3267\234\256\301\277\206\'\302\212?Q\007\300\313/H=\317M\007\3009\302;\331C\004\361?u}\326$8:\204\277~\233\240\253gV\256?\316\267\354\335C\263\007\300\220\037]\306\347\343\004\300\255M\213cg\336\331?\343\337\010\301e\306\204\277\300eJ-iy\325\277JhBJ\251`\006\300\375\203w\346\210k\006\300\334\34791W*\334?\263\211\004\215i\320\204\277\300eJ-iy\325\277;\324\302\336\256\317\004\300L\030\004\314\250X\004\3006\313^\351}[\330?\265\022g\314\343\321\204\277\300eJ-iy\325\277L\201\355\277\305\306\004\300\220\037]\306\347\343\004\300\261\354\332\334\327r\312?\352W\252\021\276\313\204\277\237\2142\030\003\017\335?\212Y\030vx\035\004\300\020=6\241|N\002\300(\377\325\330\025\266\333?\236U\207K\205\303\204\277\233\344\310\024\217\330\344?\275`\230\031\275\002\004\300\223\265\".q$\004\300/\220NL\037f\321?\327oy\231\366\313\204\277~\233\240\253gV\256?1r\231^\355\n\000\300i\350\002\302t~\376\277\246\371e\300\3446\321?q\317\360\353b\307\204\277PR\3267\234\256\301\277\313$\211\357\234\254\374\277\264\033\347\213\306\212\375\277n\300=\234tA\330?\363%TZ\352#T?,\216et\373C\000@E\2743\346\345\363\374\277\322&\'|q\372\373\277T\352\360{\t#\322?\2338\214\363\260\321\204\277~\233\240\253gV\256?\251\360\230\337\031\354\001\300\263\213E\322`4\002\300\216S4k\344#\324?\2004F\351\352\321\204\277\300eJ-iy\325\277\322?\031\346\014\306\000\300D\\H\376z\014\001\300*\271I\231\207U\310?\265)\327c\345\321\204\277\300eJ-iy\325\277\370 p\202`\276\351\277\007\345q\353\033x\313?\326g\232$\020\213\312?\3669\006d\236\271\204\277\300eJ-iy\325\277\271\331\3039\001\273\357\277\276S\234.\266\366\360\277\330\037\372\240L\323\247?;\335Q\271\346\276\204\277\300eJ-iy\325\277:\272\277@\205\236\361?\352\001\031\273\350z\357?\030\216\207\302\357O\302?\000>t\251\001M\204\277\300eJ-iy\325\277d6\3262\240\362\355?I\271\236\363r\n\352?g\205-\377\025L\321?N\220@\264R8\204\277\232\020\024\023U\275\360?\327.,